{
  "version": "1.0",
  "truncation": null,
  "padding": null,
  "added_tokens": [],
  "normalizer": null,
  "pre_tokenizer": {
    "type": "ByteLevel",
    "add_prefix_space": true,
    "trim_offsets": true
  },
  "post_processor": {
    "type": "ByteLevel",
    "add_prefix_space": true,
    "trim_offsets": true
  },
  "decoder": {
    "type": "ByteLevel",
    "add_prefix_space": true,
    "trim_offsets": true
  },
  "model": {
    "type": "BPE",
    "dropout": null,
    "unk_token": null,
    "continuing_subword_prefix": null,
    "end_of_word_suffix": null,
    "fuse_unk": false,
    "vocab": {
      "!": 0,
      "\"": 1,
      "#": 2,
      "$": 3,
      "%": 4,
      "&": 5,
      "'": 6,
      "(": 7,
      ")": 8,
      "*": 9,
      "+": 10,
      ",": 11,
      "-": 12,
      ".": 13,
      "/": 14,
      "0": 15,
      "1": 16,
      "2": 17,
      "3": 18,
      "4": 19,
      "5": 20,
      "6": 21,
      "7": 22,
      "8": 23,
      "9": 24,
      ":": 25,
      ";": 26,
      "<": 27,
      "=": 28,
      ">": 29,
      "?": 30,
      "@": 31,
      "A": 32,
      "B": 33,
      "C": 34,
      "D": 35,
      "E": 36,
      "F": 37,
      "G": 38,
      "H": 39,
      "I": 40,
      "J": 41,
      "K": 42,
      "L": 43,
      "M": 44,
      "N": 45,
      "O": 46,
      "P": 47,
      "Q": 48,
      "R": 49,
      "S": 50,
      "T": 51,
      "U": 52,
      "V": 53,
      "W": 54,
      "X": 55,
      "Y": 56,
      "Z": 57,
      "[": 58,
      "\\": 59,
      "]": 60,
      "^": 61,
      "_": 62,
      "`": 63,
      "a": 64,
      "b": 65,
      "c": 66,
      "d": 67,
      "e": 68,
      "f": 69,
      "g": 70,
      "h": 71,
      "i": 72,
      "j": 73,
      "k": 74,
      "l": 75,
      "m": 76,
      "n": 77,
      "o": 78,
      "p": 79,
      "q": 80,
      "r": 81,
      "s": 82,
      "t": 83,
      "u": 84,
      "v": 85,
      "w": 86,
      "x": 87,
      "y": 88,
      "z": 89,
      "{": 90,
      "|": 91,
      "}": 92,
      "~": 93,
      "¡": 94,
      "¢": 95,
      "£": 96,
      "¤": 97,
      "¥": 98,
      "¦": 99,
      "§": 100,
      "¨": 101,
      "©": 102,
      "ª": 103,
      "«": 104,
      "¬": 105,
      "®": 106,
      "¯": 107,
      "°": 108,
      "±": 109,
      "²": 110,
      "³": 111,
      "´": 112,
      "µ": 113,
      "¶": 114,
      "·": 115,
      "¸": 116,
      "¹": 117,
      "º": 118,
      "»": 119,
      "¼": 120,
      "½": 121,
      "¾": 122,
      "¿": 123,
      "À": 124,
      "Á": 125,
      "Â": 126,
      "Ã": 127,
      "Ä": 128,
      "Å": 129,
      "Æ": 130,
      "Ç": 131,
      "È": 132,
      "É": 133,
      "Ê": 134,
      "Ë": 135,
      "Ì": 136,
      "Í": 137,
      "Î": 138,
      "Ï": 139,
      "Ð": 140,
      "Ñ": 141,
      "Ò": 142,
      "Ó": 143,
      "Ô": 144,
      "Õ": 145,
      "Ö": 146,
      "×": 147,
      "Ø": 148,
      "Ù": 149,
      "Ú": 150,
      "Û": 151,
      "Ü": 152,
      "Ý": 153,
      "Þ": 154,
      "ß": 155,
      "à": 156,
      "á": 157,
      "â": 158,
      "ã": 159,
      "ä": 160,
      "å": 161,
      "æ": 162,
      "ç": 163,
      "è": 164,
      "é": 165,
      "ê": 166,
      "ë": 167,
      "ì": 168,
      "í": 169,
      "î": 170,
      "ï": 171,
      "ð": 172,
      "ñ": 173,
      "ò": 174,
      "ó": 175,
      "ô": 176,
      "õ": 177,
      "ö": 178,
      "÷": 179,
      "ø": 180,
      "ù": 181,
      "ú": 182,
      "û": 183,
      "ü": 184,
      "ý": 185,
      "þ": 186,
      "ÿ": 187,
      "Ā": 188,
      "ā": 189,
      "Ă": 190,
      "ă": 191,
      "Ą": 192,
      "ą": 193,
      "Ć": 194,
      "ć": 195,
      "Ĉ": 196,
      "ĉ": 197,
      "Ċ": 198,
      "ċ": 199,
      "Č": 200,
      "č": 201,
      "Ď": 202,
      "ď": 203,
      "Đ": 204,
      "đ": 205,
      "Ē": 206,
      "ē": 207,
      "Ĕ": 208,
      "ĕ": 209,
      "Ė": 210,
      "ė": 211,
      "Ę": 212,
      "ę": 213,
      "Ě": 214,
      "ě": 215,
      "Ĝ": 216,
      "ĝ": 217,
      "Ğ": 218,
      "ğ": 219,
      "Ġ": 220,
      "ġ": 221,
      "Ģ": 222,
      "ģ": 223,
      "Ĥ": 224,
      "ĥ": 225,
      "Ħ": 226,
      "ħ": 227,
      "Ĩ": 228,
      "ĩ": 229,
      "Ī": 230,
      "ī": 231,
      "Ĭ": 232,
      "ĭ": 233,
      "Į": 234,
      "į": 235,
      "İ": 236,
      "ı": 237,
      "Ĳ": 238,
      "ĳ": 239,
      "Ĵ": 240,
      "ĵ": 241,
      "Ķ": 242,
      "ķ": 243,
      "ĸ": 244,
      "Ĺ": 245,
      "ĺ": 246,
      "Ļ": 247,
      "ļ": 248,
      "Ľ": 249,
      "ľ": 250,
      "Ŀ": 251,
      "ŀ": 252,
      "Ł": 253,
      "ł": 254,
      "Ń": 255,
      "čĊ": 256,
      "ng": 257,
      "Ã¼": 258,
      "Ġk": 259,
      "nge": 260,
      "Ġl": 261,
      "ym": 262,
      "tu": 263,
      "Ġp": 264,
      "fu": 265,
      "ke": 266,
      "Ġa": 267,
      "ymÃ¼": 268,
      "le": 269,
      "Ġnge": 270,
      "Ġke": 271,
      "Ġn": 272,
      "Ã±": 273,
      "Ġy": 274,
      "tr": 275,
      "Ġm": 276,
      "li": 277,
      "Ġw": 278,
      "Ġfu": 279,
      "Ġle": 280,
      "mi": 281,
      "ch": 282,
      "ymi": 283,
      "ymÃ¼n": 284,
      "Ġf": 285,
      "Ġpe": 286,
      "Ġtu": 287,
      "ka": 288,
      "en": 289,
      "Ġli": 290,
      "iÃ±": 291,
      "ll": 292,
      "ĠkÃ¼": 293,
      "pa": 294,
      "el": 295,
      "ma": 296,
      "ku": 297,
      "kefu": 298,
      "aw": 299,
      "pe": 300,
      "du": 301,
      "Ġr": 302,
      "Ġpi": 303,
      "Ġki": 304,
      "Ġch": 305,
      "Ġng": 306,
      "Ġymi": 307,
      "ĠymÃ¼n": 308,
      "ĠymÃ¼": 309,
      "Ġlmi": 310,
      "me": 311,
      "tra": 312,
      "ie": 313,
      "Ġfe": 314,
      "kÃ¼": 315,
      "yiÃ±": 316,
      "lmi": 317,
      "Ġka": 318,
      "Ġpu": 319,
      "Ġku": 320,
      "pu": 321,
      "Ġkim": 322,
      "ngu": 323,
      "dungu": 324,
      "Ġi": 325,
      "entu": 326,
      "ntu": 327,
      "Ġwe": 328,
      "am": 329,
      "Ġma": 330,
      "ew": 331,
      "Ġnie": 332,
      "Ġwi": 333,
      "nu": 334,
      "Ġtr": 335,
      "Ġel": 336,
      "Ġla": 337,
      "ill": 338,
      "Ġme": 339,
      "on": 340,
      "tru": 341,
      "Ġye": 342,
      "Ġpa": 343,
      "mu": 344,
      "Ã¼n": 345,
      "Ġtuku": 346,
      "Ã±ma": 347,
      "ĠkÃ¼pa": 348,
      "liyiÃ±": 349,
      "ĠliyiÃ±": 350,
      "chi": 351,
      "ra": 352,
      "ĠmÃ¼": 353,
      "afu": 354,
      "pi": 355,
      "Ġe": 356,
      "ay": 357,
      "Ġfey": 358,
      "Ġru": 359,
      "Ġche": 360,
      "Ġay": 361,
      "illa": 362,
      "ngeke": 363,
      "Ġd": 364,
      "lu": 365,
      "lo": 366,
      "Ġdungu": 367,
      "kÃ¼le": 368,
      "Ġtra": 369,
      "Ġmapu": 370,
      "ĠkÃ¼le": 371,
      "Ġngilla": 372,
      "an": 373,
      "ĠmÃ¼le": 374,
      "Ġu": 375,
      "Ġentu": 376,
      "che": 377,
      "Ġamu": 378,
      "ki": 379,
      "Ġkon": 380,
      "ru": 381,
      "yaw": 382,
      "ta": 383,
      "daw": 384,
      "Ã¼m": 385,
      "Ġmeke": 386,
      "Ã¼l": 387,
      "Ġrke": 388,
      "ngekefu": 389,
      "Ġfem": 390,
      "ĠkÃ¼daw": 391,
      "Ġchu": 392,
      "Ġya": 393,
      "Ġdew": 394,
      "rke": 395,
      "na": 396,
      "Ġlu": 397,
      "Ġchum": 398,
      "lli": 399,
      "Ġdewma": 400,
      "Ġall": 401,
      "ri": 402,
      "Ġkimel": 403,
      "ko": 404,
      "da": 405,
      "fe": 406,
      "Ġkatru": 407,
      "meke": 408,
      "to": 409,
      "ĠÃ±ma": 410,
      "la": 411,
      "ali": 412,
      "te": 413,
      "re": 414,
      "ipa": 415,
      "nie": 416,
      "Ġchem": 417,
      "Ġad": 418,
      "tran": 419,
      "ngka": 420,
      "llu": 421,
      "Ġelu": 422,
      "Ġmapudungu": 423,
      "ĠngÃ¼": 424,
      "Ġngo": 425,
      "Ã¼tra": 426,
      "ngea": 427,
      "Ġlli": 428,
      "Ġtre": 429,
      "fi": 430,
      "Ġfi": 431,
      "kunu": 432,
      "Ġkunu": 433,
      "wa": 434,
      "Ġtripa": 435,
      "ĠÃ±": 436,
      "Ġngillatu": 437,
      "ĠÃ¼l": 438,
      "ĠnÃ¼tra": 439,
      "ĠnÃ¼tram": 440,
      "Ġwa": 441,
      "ĠnÃ¼tramka": 442,
      "Ġkutran": 443,
      "Ġayi": 444,
      "katu": 445,
      "or": 446,
      "Ġaku": 447,
      "ĠallkÃ¼": 448,
      "ĠiÃ±": 449,
      "Ġnentu": 450,
      "amtu": 451,
      "de": 452,
      "Ġmi": 453,
      "Ġkellu": 454,
      "kantu": 455,
      "Ġyaw": 456,
      "ĠkÃ¼me": 457,
      "Ġpuw": 458,
      "Ġc": 459,
      "yu": 460,
      "Ġna": 461,
      "al": 462,
      "ange": 463,
      "ĠngÃ¼n": 464,
      "Ġllika": 465,
      "Ġaye": 466,
      "Ġpura": 467,
      "Ġmo": 468,
      "ngÃ¼m": 469,
      "Ġrume": 470,
      "Ġfeypi": 471,
      "Ġadu": 472,
      "ale": 473,
      "Ġkewa": 474,
      "Ġlla": 475,
      "di": 476,
      "Ġpichi": 477,
      "Ġwingka": 478,
      "Ã±e": 479,
      "sa": 480,
      "kele": 481,
      "Ġramtu": 482,
      "Ġill": 483,
      "Ġutru": 484,
      "kintu": 485,
      "aymi": 486,
      "Ġnu": 487,
      "Ġilo": 488,
      "Ġkintu": 489,
      "ngele": 490,
      "key": 491,
      "Ġmu": 492,
      "Ġllad": 493,
      "awÃ¼": 494,
      "Ġfele": 495,
      "Ġmiyaw": 496,
      "duam": 497,
      "Ġnag": 498,
      "Ġap": 499,
      "aymÃ¼n": 500,
      "Ġlo": 501,
      "rume": 502,
      "Ġmapuche": 503,
      "Ġtrem": 504,
      "aymÃ¼": 505,
      "ape": 506,
      "almi": 507,
      "lay": 508,
      "Ġpo": 509,
      "ĠngÃ¼ma": 510,
      "ĠÃ¼lkantu": 511,
      "ngen": 512,
      "Ġyew": 513,
      "Ġngoym": 514,
      "Ġfen": 515,
      "Ġchill": 516,
      "Ġwall": 517,
      "ro": 518,
      "iÃ±o": 519,
      "Ġrupa": 520,
      "ĠlladkÃ¼": 521,
      "tule": 522,
      "Ġwiri": 523,
      "ngey": 524,
      "we": 525,
      "Ġwingkadungu": 526,
      "ti": 527,
      "ken": 528,
      "Ġadkintu": 529,
      "ey": 530,
      "ngko": 531,
      "iw": 532,
      "kefuy": 533,
      "ngeli": 534,
      "ngeymi": 535,
      "ngepe": 536,
      "ngenge": 537,
      "ngeymÃ¼": 538,
      "ngeymÃ¼n": 539,
      "ngelmi": 540,
      "ĠwiÃ±o": 541,
      "Ġfam": 542,
      "ud": 543,
      "keli": 544,
      "keymi": 545,
      "keymÃ¼n": 546,
      "Ġwira": 547,
      "kenge": 548,
      "keymÃ¼": 549,
      "kepe": 550,
      "kelmi": 551,
      "Ġin": 552,
      "upi": 553,
      "Ġra": 554,
      "chu": 555,
      "ngÃ¼n": 556,
      "Ġadum": 557,
      "ael": 558,
      "Ġtrana": 559,
      "Ġan": 560,
      "Ġkuy": 561,
      "cha": 562,
      "Ġkulli": 563,
      "kefun": 564,
      "kefulmi": 565,
      "do": 566,
      "kefunge": 567,
      "kefuymÃ¼": 568,
      "kefule": 569,
      "kefuli": 570,
      "kefuymi": 571,
      "kefuymÃ¼n": 572,
      "kefupe": 573,
      "Ġputo": 574,
      "ngechi": 575,
      "Ġputoko": 576,
      "Ġweda": 577,
      "Ġfeyentu": 578,
      "mel": 579,
      "Ġnaw": 580,
      "ĠweÃ±e": 581,
      "ĠpÃ¼": 582,
      "Ġaf": 583,
      "Ġchillkatu": 584,
      "Ġraki": 585,
      "as": 586,
      "Ġwen": 587,
      "rÃ¼": 588,
      "maw": 589,
      "Ġapo": 590,
      "Ġlongko": 591,
      "lpa": 592,
      "Ġutruf": 593,
      "Ġaw": 594,
      "Ġngen": 595,
      "ĠtrawÃ¼": 596,
      "Ġlaw": 597,
      "Ġanu": 598,
      "pay": 599,
      "Ġtraf": 600,
      "Ġngoyma": 601,
      "ĠÃ¼": 602,
      "kale": 603,
      "Ġwitra": 604,
      "Ġno": 605,
      "ĠÃ±am": 606,
      "ngetu": 607,
      "Ġko": 608,
      "Ġina": 609,
      "ul": 610,
      "Ġumaw": 611,
      "Ġyu": 612,
      "Ġweupi": 613,
      "Ġngolli": 614,
      "Ġen": 615,
      "Ġfal": 616,
      "Ġpur": 617,
      "ĠkiÃ±": 618,
      "Ġes": 619,
      "ye": 620,
      "Ġcho": 621,
      "Ġo": 622,
      "su": 623,
      "Ġpro": 624,
      "enie": 625,
      "ĠlangÃ¼m": 626,
      "Ġkuyda": 627,
      "ne": 628,
      "ĠkÃ¼mel": 629,
      "ntuku": 630,
      "mun": 631,
      "sh": 632,
      "Ġprofe": 633,
      "Ġew": 634,
      "ngku": 635,
      "Ġllo": 636,
      "Ġkechi": 637,
      "Ġcha": 638,
      "Ġprofes": 639,
      "kutu": 640,
      "Ġtral": 641,
      "ĠillkÃ¼": 642,
      "Ġrakiduam": 643,
      "ĠkiÃ±e": 644,
      "Ġlle": 645,
      "men": 646,
      "kerke": 647,
      "afuy": 648,
      "tuku": 649,
      "Ġang": 650,
      "ĠfÃ¼": 651,
      "pel": 652,
      "Ġfende": 653,
      "Ġwallo": 654,
      "Ġngu": 655,
      "Ġmonge": 656,
      "es": 657,
      "kon": 658,
      "ltru": 659,
      "Ġwel": 660,
      "Ġkisu": 661,
      "Ġdu": 662,
      "Ġayiw": 663,
      "no": 664,
      "kel": 665,
      "Ġpurru": 666,
      "Ġyewe": 667,
      "amu": 668,
      "Ġnuyu": 669,
      "Ġyenie": 670,
      "Ġama": 671,
      "ley": 672,
      "ĠkÃ¼pal": 673,
      "ca": 674,
      "kan": 675,
      "rku": 676,
      "Ġh": 677,
      "Ġyafu": 678,
      "ĠkÃ¼l": 679,
      "Ġdulli": 680,
      "Ġamatu": 681,
      "Ġta": 682,
      "Ġwirar": 683,
      "kechi": 684,
      "lele": 685,
      "Ġrel": 686,
      "Ġingka": 687,
      "Ġpiw": 688,
      "Ġant": 689,
      "Ġare": 690,
      "Ġwul": 691,
      "Ġleli": 692,
      "Ġmalu": 693,
      "Ġfemngechi": 694,
      "kelu": 695,
      "len": 696,
      "ente": 697,
      "aliyiÃ±": 698,
      "er": 699,
      "Ġb": 700,
      "lenge": 701,
      "Ġwili": 702,
      "Ġillam": 703,
      "ĠpÃ¼tr": 704,
      "Ġtralkatu": 705,
      "ftu": 706,
      "ngefu": 707,
      "Ġpelo": 708,
      "ĠmÃ¼tr": 709,
      "nag": 710,
      "Ġprofesor": 711,
      "letu": 712,
      "Ġmuntu": 713,
      "Ġduam": 714,
      "Ġlef": 715,
      "tor": 716,
      "sha": 717,
      "wi": 718,
      "wud": 719,
      "ĠÃ¼n": 720,
      "ĠfÃ¼l": 721,
      "Ġdo": 722,
      "Ġpultru": 723,
      "Ġwesha": 724,
      "Ġmasa": 725,
      "Ã¼ne": 726,
      "Ġurku": 727,
      "Ġallkutu": 728,
      "ĠkÃ¼nu": 729,
      "fin": 730,
      "Ġne": 731,
      "ĠÃ¼y": 732,
      "lepe": 733,
      "eÃ±": 734,
      "leymÃ¼": 735,
      "leli": 736,
      "leymi": 737,
      "leymÃ¼n": 738,
      "lelmi": 739,
      "ĠwÃ¼": 740,
      "Ġfo": 741,
      "ĠkÃ¼melkale": 742,
      "pÃ¼": 743,
      "ngeliyiÃ±": 744,
      "si": 745,
      "Ġv": 746,
      "keliyiÃ±": 747,
      "Ġac": 748,
      "Ġpepi": 749,
      "kÃ¼m": 750,
      "ĠfÃ¼ta": 751,
      "co": 752,
      "ctor": 753,
      "dwe": 754,
      "kiÃ±": 755,
      "tudi": 756,
      "lel": 757,
      "Ġfali": 758,
      "kaw": 759,
      "pape": 760,
      "Ġwemun": 761,
      "Ġwedwe": 762,
      "Ġestudi": 763,
      "ĠmÃ¼trÃ¼m": 764,
      "Ġkiyaw": 765,
      "kiyaw": 766,
      "Ġwedwed": 767,
      "Ġfan": 768,
      "Ġper": 769,
      "Ġpedi": 770,
      "pera": 771,
      "ĠmÃ¼pÃ¼": 772,
      "Ġcas": 773,
      "Ġawkantu": 774,
      "Ġopera": 775,
      "ngÃ¼": 776,
      "mapu": 777,
      "Ġlawen": 778,
      "Ġyafutu": 779,
      "ĠantÃ¼": 780,
      "rpu": 781,
      "za": 782,
      "fuy": 783,
      "Ġpentuku": 784,
      "Ġres": 785,
      "Ġmall": 786,
      "Ġmachi": 787,
      "Ġmunu": 788,
      "Ġllow": 789,
      "Ġrespe": 790,
      "tunge": 791,
      "kefuliyiÃ±": 792,
      "kÃ¼l": 793,
      "fÃ¼": 794,
      "Ġto": 795,
      "fun": 796,
      "fuli": 797,
      "lla": 798,
      "mall": 799,
      "Ġrpu": 800,
      "Ġpune": 801,
      "Ġrulpa": 802,
      "Ġmapuchedungu": 803,
      "funge": 804,
      "fulmi": 805,
      "Ġlawentu": 806,
      "ga": 807,
      "tuy": 808,
      "fuymÃ¼": 809,
      "fule": 810,
      "fuymi": 811,
      "fuymÃ¼n": 812,
      "fupe": 813,
      "ĠkarÃ¼": 814,
      "Ġrung": 815,
      "ĠnengÃ¼m": 816,
      "Ġcasti": 817,
      "Ġputu": 818,
      "Ġweche": 819,
      "Ġayu": 820,
      "anie": 821,
      "ĠÃ¼m": 822,
      "ngekey": 823,
      "Ġs": 824,
      "tupe": 825,
      "Ġpew": 826,
      "Ġwillu": 827,
      "afun": 828,
      "orra": 829,
      "Ġpultrun": 830,
      "wen": 831,
      "Ġt": 832,
      "Ġkimnie": 833,
      "rupa": 834,
      "Ġllitu": 835,
      "Ġdoctor": 836,
      "taw": 837,
      "elmi": 838,
      "kÃ¼nu": 839,
      "Ġamule": 840,
      "all": 841,
      "Ġsa": 842,
      "Ġlif": 843,
      "Ġpapel": 844,
      "ĠmÃ¼lepu": 845,
      "chefe": 846,
      "ngerke": 847,
      "tun": 848,
      "tripa": 849,
      "Ġchiw": 850,
      "ĠkÃ¼paki": 851,
      "Ġchiwud": 852,
      "ĠwÃ¼ne": 853,
      "maÃ±": 854,
      "Ġmate": 855,
      "Ġtreka": 856,
      "ni": 857,
      "tulmi": 858,
      "Ġyeme": 859,
      "ĠÃ±i": 860,
      "ĠngÃ¼ne": 861,
      "ĠpÃ¼trÃ¼": 862,
      "Ġcastiga": 863,
      "ci": 864,
      "je": 865,
      "Ġkaw": 866,
      "tuli": 867,
      "Ġpor": 868,
      "Ġwaka": 869,
      "Ġinte": 870,
      "Ġwentru": 871,
      "Ġwemunentu": 872,
      "mÃ¼n": 873,
      "tuymÃ¼": 874,
      "tuymi": 875,
      "tuymÃ¼n": 876,
      "ĠmÃ¼n": 877,
      "ngeken": 878,
      "ngekenge": 879,
      "ngekeymÃ¼": 880,
      "ngekele": 881,
      "ngekeli": 882,
      "ngekeymi": 883,
      "ngekeymÃ¼n": 884,
      "ngekepe": 885,
      "ngekelmi": 886,
      "Ġchumngechi": 887,
      "lon": 888,
      "Ġg": 889,
      "Ġlel": 890,
      "Ġkure": 891,
      "Ġkulpa": 892,
      "ĠÃ¼lmen": 893,
      "Ġmontu": 894,
      "dol": 895,
      "Ġweshakelu": 896,
      "Ġvi": 897,
      "ĠÃ±idol": 898,
      "mo": 899,
      "Ġmew": 900,
      "enew": 901,
      "Ġchi": 902,
      "ngekefuy": 903,
      "Ġchumle": 904,
      "Ġkutrankaw": 905,
      "ae": 906,
      "rkÃ¼": 907,
      "seÃ±": 908,
      "ĠC": 909,
      "Ã¼d": 910,
      "Ġpri": 911,
      "Ġpamu": 912,
      "Ġnew": 913,
      "Ġpekan": 914,
      "Ġtuw": 915,
      "Ġkachu": 916,
      "ĠkurÃ¼": 917,
      "ĠwerkÃ¼": 918,
      "Ġtro": 919,
      "afuymi": 920,
      "Ġtran": 921,
      "llipu": 922,
      "Ġpoye": 923,
      "ĠenseÃ±": 924,
      "Ġllellipu": 925,
      "ren": 926,
      "Ġpipi": 927,
      "Ġruf": 928,
      "ngekefun": 929,
      "ngekefunge": 930,
      "ngekefuymÃ¼": 931,
      "ngekefule": 932,
      "ngekefuli": 933,
      "ngekefuymi": 934,
      "ngekefuymÃ¼n": 935,
      "ngekefupe": 936,
      "ngekefulmi": 937,
      "fiy": 938,
      "Ġadumu": 939,
      "Ġtremo": 940,
      "Ã¼y": 941,
      "Ġar": 942,
      "Ġkew": 943,
      "tro": 944,
      "kay": 945,
      "kachu": 946,
      "Ġrey": 947,
      "Ġkudu": 948,
      "Ġwicha": 949,
      "Ġkatrukachu": 950,
      "ĠngÃ¼Ã±": 951,
      "Ġnguyu": 952,
      "Ġrespeta": 953,
      "Ġpriv": 954,
      "Ġreyi": 955,
      "ngepa": 956,
      "tumeke": 957,
      "Ġketra": 958,
      "ĠmawÃ¼": 959,
      "mew": 960,
      "Ġfente": 961,
      "ĠangkÃ¼": 962,
      "Ġwelle": 963,
      "Ġestudia": 964,
      "Ġfante": 965,
      "ngÃ¼ma": 966,
      "mapudungu": 967,
      "Ġpekanka": 968,
      "fre": 969,
      "gente": 970,
      "Ġkelu": 971,
      "Ġney": 972,
      "Ġkude": 973,
      "Ġkucha": 974,
      "afule": 975,
      "afulmi": 976,
      "ayaw": 977,
      "Ġkimelfe": 978,
      "fem": 979,
      "Ġadentu": 980,
      "Ġchoko": 981,
      "Ġhu": 982,
      "Ġpiwke": 983,
      "Ġmaluka": 984,
      "Ġacor": 985,
      "Ġmallmall": 986,
      "Ġpelon": 987,
      "Ġwef": 988,
      "afunge": 989,
      "afuymÃ¼": 990,
      "afuli": 991,
      "afuymÃ¼n": 992,
      "afupe": 993,
      "ĠkÃ¼pakim": 994,
      "ĠngÃ¼Ã±Ã¼": 995,
      "tre": 996,
      "Ġfa": 997,
      "paf": 998,
      "ĠngÃ¼l": 999,
      "Ġwew": 1000,
      "Ġpalo": 1001,
      "kÃ¼lepe": 1002,
      "Ġtrari": 1003,
      "Ġpofre": 1004,
      "Ġlloftu": 1005,
      "Ġrungal": 1006,
      "Ġatu": 1007,
      "pitu": 1008,
      "ngeker": 1009,
      "Ġayetu": 1010,
      "Ġlolo": 1011,
      "Ġpelontu": 1012,
      "danie": 1013,
      "fku": 1014,
      "niw": 1015,
      "qu": 1016,
      "Ġll": 1017,
      "Ġchali": 1018,
      "Ġkall": 1019,
      "Ġtri": 1020,
      "lol": 1021,
      "Ġuniw": 1022,
      "Ġtranarupa": 1023,
      "Ġborra": 1024,
      "Ġmasatu": 1025,
      "Ġperde": 1026,
      "lka": 1027,
      "yael": 1028,
      "Ġngillame": 1029,
      "Ġtrafo": 1030,
      "eli": 1031,
      "Ġmaw": 1032,
      "ngeange": 1033,
      "ngeaymÃ¼": 1034,
      "ngeale": 1035,
      "ngeaymi": 1036,
      "ngeaymÃ¼n": 1037,
      "ngeape": 1038,
      "ngealmi": 1039,
      "in": 1040,
      "ile": 1041,
      "ngeay": 1042,
      "ngean": 1043,
      "ngeali": 1044,
      "Ġkimwi": 1045,
      "kÃ¼ley": 1046,
      "Ġkimeltu": 1047,
      "ĠnakÃ¼m": 1048,
      "Ġchaf": 1049,
      "wel": 1050,
      "kelay": 1051,
      "leliyiÃ±": 1052,
      "Ġyel": 1053,
      "Ġlaku": 1054,
      "Ġangk": 1055,
      "wentru": 1056,
      "ĠenseÃ±a": 1057,
      "Ġpriva": 1058,
      "Ġtukulel": 1059,
      "kÃ¼len": 1060,
      "Ġfotra": 1061,
      "Ġnamu": 1062,
      "Ġkutra": 1063,
      "entuku": 1064,
      "Ġwitran": 1065,
      "Ġelkunu": 1066,
      "kÃ¼lenge": 1067,
      "kÃ¼leymÃ¼": 1068,
      "kÃ¼lele": 1069,
      "kÃ¼leli": 1070,
      "kÃ¼leymi": 1071,
      "kÃ¼leymÃ¼n": 1072,
      "kÃ¼lelmi": 1073,
      "Ġtray": 1074,
      "Ġkonpa": 1075,
      "ngeael": 1076,
      "fiiÃ±": 1077,
      "ĠanÃ¼m": 1078,
      "Ġutrufnag": 1079,
      "ĠCh": 1080,
      "ngelu": 1081,
      "may": 1082,
      "Ġdewmai": 1083,
      "ĠawkiÃ±": 1084,
      "ĠÃ¼rke": 1085,
      "Ġkisule": 1086,
      "Ġacorda": 1087,
      "ar": 1088,
      "gen": 1089,
      "yngÃ¼n": 1090,
      "Ġpre": 1091,
      "pan": 1092,
      "elu": 1093,
      "Ġell": 1094,
      "Ġchumkunu": 1095,
      "Ġwangku": 1096,
      "Ġpob": 1097,
      "ĠwenÃ¼y": 1098,
      "ten": 1099,
      "ker": 1100,
      "man": 1101,
      "Ġpike": 1102,
      "Ġkan": 1103,
      "Ġtukunie": 1104,
      "Ġdi": 1105,
      "Ġyelme": 1106,
      "Ġketro": 1107,
      "Ã±u": 1108,
      "Ã±mew": 1109,
      "ĠyÃ±": 1110,
      "Ġman": 1111,
      "Ġrungku": 1112,
      "Ġtrapu": 1113,
      "ĠngÃ¼paf": 1114,
      "Ġtrepe": 1115,
      "Ġtrefku": 1116,
      "Ġce": 1117,
      "Ġchillka": 1118,
      "Ġho": 1119,
      "ĠwÃ¼za": 1120,
      "Ġkallpitu": 1121,
      "po": 1122,
      "pange": 1123,
      "paymÃ¼": 1124,
      "pale": 1125,
      "pali": 1126,
      "paymi": 1127,
      "paymÃ¼n": 1128,
      "palmi": 1129,
      "Ġkaru": 1130,
      "pun": 1131,
      "kelafuy": 1132,
      "ĠmuntuÃ±ma": 1133,
      "Ġpobre": 1134,
      "ang": 1135,
      "dente": 1136,
      "ep": 1137,
      "ion": 1138,
      "lan": 1139,
      "Ã±o": 1140,
      "chaw": 1141,
      "Ġpiyaw": 1142,
      "ĠkamaÃ±": 1143,
      "Ġamutu": 1144,
      "meken": 1145,
      "mekey": 1146,
      "mekenge": 1147,
      "mekeymÃ¼": 1148,
      "mekele": 1149,
      "mekeli": 1150,
      "mekeymi": 1151,
      "mekeymÃ¼n": 1152,
      "mekepe": 1153,
      "mekelmi": 1154,
      "Ġintere": 1155,
      "entukunie": 1156,
      "Ġpresi": 1157,
      "Ġkarukatu": 1158,
      "chawall": 1159,
      "afi": 1160,
      "fke": 1161,
      "un": 1162,
      "yen": 1163,
      "ngelay": 1164,
      "keiÃ±": 1165,
      "ĠweÃ±": 1166,
      "ĠfÃ¼cha": 1167,
      "qui": 1168,
      "bi": 1169,
      "dw": 1170,
      "rme": 1171,
      "ram": 1172,
      "ĠT": 1173,
      "Ġawa": 1174,
      "Ġpeme": 1175,
      "kamaÃ±": 1176,
      "Ġkima": 1177,
      "puy": 1178,
      "Ġtru": 1179,
      "illo": 1180,
      "Ġella": 1181,
      "longko": 1182,
      "anchu": 1183,
      "ĠkonÃ¼m": 1184,
      "Ġluf": 1185,
      "Ġlup": 1186,
      "ngkadungu": 1187,
      "Ġcer": 1188,
      "Ġmongele": 1189,
      "digen": 1190,
      "Ã±eÃ±": 1191,
      "Ġindigen": 1192,
      "melmi": 1193,
      "ĠpÃ¼Ã±eÃ±": 1194,
      "Ġkol": 1195,
      "Ġchom": 1196,
      "ĠwÃ¼dw": 1197,
      "Ġfol": 1198,
      "ĠkawiÃ±": 1199,
      "Ġtroki": 1200,
      "Ġkimwingkadungu": 1201,
      "Ġpresidente": 1202,
      "ĠkonÃ¼mpa": 1203,
      "ĠwÃ¼dwÃ¼d": 1204,
      "lafuy": 1205,
      "ochi": 1206,
      "ĠM": 1207,
      "kela": 1208,
      "Ã±iw": 1209,
      "ĠfÃ¼tra": 1210,
      "ĠkÃ¼tran": 1211,
      "Ġpilu": 1212,
      "punge": 1213,
      "putu": 1214,
      "puymÃ¼": 1215,
      "pule": 1216,
      "puli": 1217,
      "puymi": 1218,
      "puymÃ¼n": 1219,
      "pupe": 1220,
      "pulmi": 1221,
      "Ġlay": 1222,
      "Ġmapun": 1223,
      "ĠentuÃ±ma": 1224,
      "Ġco": 1225,
      "Ġesc": 1226,
      "ĠwakakamaÃ±": 1227,
      "aje": 1228,
      "achawall": 1229,
      "dew": 1230,
      "iel": 1231,
      "oto": 1232,
      "ramtu": 1233,
      "tay": 1234,
      "zÃ¼m": 1235,
      "ĠpÃ¼ne": 1236,
      "mita": 1237,
      "Ġpell": 1238,
      "Ġpinge": 1239,
      "Ġpile": 1240,
      "ĠpingÃ¼m": 1241,
      "Ġnga": 1242,
      "kÃ¼daw": 1243,
      "Ġkamapu": 1244,
      "Ġkuru": 1245,
      "ĠkuÃ±iw": 1246,
      "ĠkimÃ¼": 1247,
      "Ġkimwud": 1248,
      "Ġkimmapudungu": 1249,
      "Ġipay": 1250,
      "ĠmaÃ±u": 1251,
      "Ġlantu": 1252,
      "onc": 1253,
      "rako": 1254,
      "aful": 1255,
      "piru": 1256,
      "Ġayentu": 1257,
      "Ġda": 1258,
      "Ġdes": 1259,
      "Ġdungule": 1260,
      "Ġentume": 1261,
      "Ġchuma": 1262,
      "ferme": 1263,
      "ĠngÃ¼rÃ¼": 1264,
      "ĠÃ±ochi": 1265,
      "ĠngillatuÃ±ma": 1266,
      "Ġakutu": 1267,
      "ĠallkÃ¼tu": 1268,
      "Ġmis": 1269,
      "Ġpuwtu": 1270,
      "ĠceÃ±": 1271,
      "Ġpichiwentru": 1272,
      "Ġinaful": 1273,
      "ĠpÃ¼zÃ¼m": 1274,
      "Ġkofke": 1275,
      "Ġenferme": 1276,
      "Ġprofesion": 1277,
      "ĠangkÃ¼m": 1278,
      "Ġngutu": 1279,
      "Ġwelu": 1280,
      "Ġtaku": 1281,
      "Ġpelota": 1282,
      "Ġacep": 1283,
      "Ġtoda": 1284,
      "Ġpewma": 1285,
      "Ġporoto": 1286,
      "Ġviaje": 1287,
      "Ġtranan": 1288,
      "inc": 1289,
      "Ġkutrantu": 1290,
      "Ġcemen": 1291,
      "ĠTe": 1292,
      "Ġcerra": 1293,
      "Ġkolletu": 1294,
      "Ġchompiru": 1295,
      "ĠkÃ¼tranku": 1296,
      "Ġmapunche": 1297,
      "Ġkuruf": 1298,
      "Ġkimwudwud": 1299,
      "Ġenfermera": 1300,
      "alu": 1301,
      "fall": 1302,
      "lkale": 1303,
      "Ġfuri": 1304,
      "puram": 1305,
      "Ġtukul": 1306,
      "rken": 1307,
      "Ġutrukunu": 1308,
      "Ġiloachawall": 1309,
      "eyÃ±mew": 1310,
      "Ġwenche": 1311,
      "Ġawka": 1312,
      "Ġenten": 1313,
      "ĠpÃ¼trÃ¼n": 1314,
      "Ġmachitu": 1315,
      "Ġnamun": 1316,
      "dpu": 1317,
      "ftripa": 1318,
      "ico": 1319,
      "ntaw": 1320,
      "ylla": 1321,
      "zinc": 1322,
      "Ġzinc": 1323,
      "keÃ±": 1324,
      "ĠaÃ±o": 1325,
      "trÃ¼": 1326,
      "lica": 1327,
      "ligente": 1328,
      "Ġway": 1329,
      "Ġwud": 1330,
      "Ġful": 1331,
      "Ġfuer": 1332,
      "kadi": 1333,
      "Ġre": 1334,
      "Ġrali": 1335,
      "Ġpiti": 1336,
      "Ġngan": 1337,
      "Ġpuna": 1338,
      "Ġkuri": 1339,
      "Ġkuntaw": 1340,
      "Ġimi": 1341,
      "Ġingku": 1342,
      "Ġwey": 1343,
      "Ġwedo": 1344,
      "ampo": 1345,
      "Ġmatru": 1346,
      "Ġwilu": 1347,
      "Ġwidpu": 1348,
      "Ġtraw": 1349,
      "onda": 1350,
      "muco": 1351,
      "ĠkÃ¼pakÃ¼daw": 1352,
      "Ġex": 1353,
      "Ġedu": 1354,
      "ngekeliyiÃ±": 1355,
      "lul": 1356,
      "Ġulel": 1357,
      "Ġfemkel": 1358,
      "rigente": 1359,
      "dad": 1360,
      "Ġngoylla": 1361,
      "ĠwakeÃ±": 1362,
      "ĠakuÃ±ma": 1363,
      "Ġcal": 1364,
      "Ġllikal": 1365,
      "Ġmotr": 1366,
      "Ġllama": 1367,
      "keyngÃ¼n": 1368,
      "Ġapren": 1369,
      "Ġpod": 1370,
      "Ġpoyen": 1371,
      "ĠngÃ¼mangÃ¼ma": 1372,
      "Ġyewen": 1373,
      "eyew": 1374,
      "ĠanÃ¼": 1375,
      "Ġwedalkale": 1376,
      "ĠweÃ±eÃ±ma": 1377,
      "Ġafkadi": 1378,
      "aso": 1379,
      "asico": 1380,
      "Ġutrufentu": 1381,
      "Ġnochi": 1382,
      "Ġkontu": 1383,
      "ĠngolliÃ±ma": 1384,
      "Ġene": 1385,
      "nej": 1386,
      "Ġchamall": 1387,
      "ĠwalloÃ±": 1388,
      "ĠnguÃ±e": 1389,
      "ĠayiwkÃ¼le": 1390,
      "Ġaretu": 1391,
      "Ġbasico": 1392,
      "Ġwilif": 1393,
      "Ġwilitu": 1394,
      "ĠÃ¼ytu": 1395,
      "Ġlawentuchefe": 1396,
      "Ġsonda": 1397,
      "ĠpewÃ¼d": 1398,
      "Ġsaca": 1399,
      "ĠlifkÃ¼le": 1400,
      "Ġporta": 1401,
      "Ġinteligente": 1402,
      "Ġgas": 1403,
      "Ġvisi": 1404,
      "Ġtranqui": 1405,
      "Ġarren": 1406,
      "ĠneyfÃ¼": 1407,
      "Ġhumita": 1408,
      "ĠmalukaÃ±ma": 1409,
      "Ġfarako": 1410,
      "ĠngÃ¼lam": 1411,
      "Ġprivati": 1412,
      "ĠChile": 1413,
      "Ġdewmaiyael": 1414,
      "Ġkanta": 1415,
      "Ġdirigente": 1416,
      "Ġhora": 1417,
      "ĠweÃ±ang": 1418,
      "Ġfoltra": 1419,
      "Ġescri": 1420,
      "Ġngapi": 1421,
      "ĠngÃ¼rÃ¼f": 1422,
      "Ġmisaw": 1423,
      "Ġprofesional": 1424,
      "Ġacepta": 1425,
      "Ġcementa": 1426,
      "ĠTemuco": 1427,
      "Ġwaychu": 1428,
      "Ġwudwud": 1429,
      "Ġfuerte": 1430,
      "Ġwedoz": 1431,
      "Ġwiluf": 1432,
      "naw": 1433,
      "Ã¼ll": 1434,
      "Ã±mu": 1435,
      "Ġpepa": 1436,
      "llo": 1437,
      "kefuiÃ±": 1438,
      "duamtu": 1439,
      "Ġweftu": 1440,
      "Ġtrilla": 1441,
      "Ġtukutu": 1442,
      "raki": 1443,
      "afuliyiÃ±": 1444,
      "Ġngillaka": 1445,
      "ĠmÃ¼lerume": 1446,
      "Ġamuka": 1447,
      "rkey": 1448,
      "rkenge": 1449,
      "rkeymÃ¼": 1450,
      "rkele": 1451,
      "rkeli": 1452,
      "rkeymi": 1453,
      "rkeymÃ¼n": 1454,
      "rkepe": 1455,
      "rkelmi": 1456,
      "ĠallfÃ¼": 1457,
      "ĠÃ±mu": 1458,
      "ĠngÃ¼nelu": 1459,
      "Ġayeka": 1460,
      "Ġpurakintu": 1461,
      "Ġlladk": 1462,
      "Ġwallpa": 1463,
      "ĠwiÃ±oraki": 1464,
      "Ġkuydanie": 1465,
      "pelay": 1466,
      "Ġwelul": 1467,
      "Ġfemngechile": 1468,
      "Ġtoca": 1469,
      "ayawÃ¼l": 1470,
      "Ġlloftume": 1471,
      "welay": 1472,
      "Ġmanda": 1473,
      "ĠweÃ±angk": 1474,
      "ĠwiÃ±orakiduamtu": 1475,
      "aiÃ±": 1476,
      "ilo": 1477,
      "mentu": 1478,
      "nru": 1479,
      "plica": 1480,
      "zonc": 1481,
      "ĠA": 1482,
      "Ġte": 1483,
      "Ġsh": 1484,
      "ngli": 1485,
      "ngar": 1486,
      "Ã¼mun": 1487,
      "Ġpam": 1488,
      "kee": 1489,
      "Ġalu": 1490,
      "Ġalo": 1491,
      "ĠangÃ¼m": 1492,
      "Ġnay": 1493,
      "Ã±i": 1494,
      "Ġyentukunie": 1495,
      "triw": 1496,
      "lito": 1497,
      "Ġforra": 1498,
      "Ġtun": 1499,
      "pam": 1500,
      "palol": 1501,
      "machi": 1502,
      "Ġpide": 1503,
      "ĠchÃ¼": 1504,
      "Ġkuntu": 1505,
      "Ġkultru": 1506,
      "Ġkumentu": 1507,
      "Ġwema": 1508,
      "onfu": 1509,
      "Ġpatriw": 1510,
      "muntu": 1511,
      "ĠkÃ¼pay": 1512,
      "ĠkÃ¼pailo": 1513,
      "ĠkÃ¼pamachi": 1514,
      "Ġrunru": 1515,
      "ĠayÃ¼": 1516,
      "luw": 1517,
      "Ġtrap": 1518,
      "Ġungu": 1519,
      "Ġusa": 1520,
      "Ġkontaw": 1521,
      "ĠkÃ¼dawme": 1522,
      "Ġlulul": 1523,
      "Ġkimelu": 1524,
      "Ġadkunu": 1525,
      "ĠngÃ¼trÃ¼": 1526,
      "ĠÃ±iw": 1527,
      "ĠayeÃ±ma": 1528,
      "Ġmongetu": 1529,
      "Ġfeypipi": 1530,
      "Ġaduma": 1531,
      "Ġutrunag": 1532,
      "ĠtremÃ¼": 1533,
      "Ġfentre": 1534,
      "upiw": 1535,
      "Ġlongkotuku": 1536,
      "lpalol": 1537,
      "Ġfalta": 1538,
      "Ġchod": 1539,
      "Ġopi": 1540,
      "Ġchapam": 1541,
      "Ġingkatu": 1542,
      "Ġmasaje": 1543,
      "Ġperkan": 1544,
      "Ġmallman": 1545,
      "Ġtoka": 1546,
      "Ġrungo": 1547,
      "Ġwilluf": 1548,
      "Ġtonfu": 1549,
      "ĠsakiÃ±": 1550,
      "Ġtrongli": 1551,
      "Ġhuaso": 1552,
      "Ġpalopalol": 1553,
      "Ġpalolpalol": 1554,
      "Ġllam": 1555,
      "ĠllÃ¼mun": 1556,
      "Ġtringar": 1557,
      "ĠuniwkÃ¼le": 1558,
      "Ġellka": 1559,
      "Ġdakelu": 1560,
      "Ġdesmay": 1561,
      "Ġentende": 1562,
      "ampoo": 1563,
      "Ġexplica": 1564,
      "Ġcalzonc": 1565,
      "Ġaprende": 1566,
      "Ġtranquilito": 1567,
      "Ġescribi": 1568,
      "ĠngÃ¼neluw": 1569,
      "Ġshampoo": 1570,
      "Ġpamupiw": 1571,
      "Ġalof": 1572,
      "ĠnaykÃ¼": 1573,
      "Ġrunrun": 1574,
      "ĠÃ±iwun": 1575,
      "ĠllÃ¼munÃ¼": 1576,
      "Ġcalzoncillo": 1577,
      "ag": 1578,
      "fiÃ±": 1579,
      "fal": 1580,
      "ĠwÃ¼n": 1581,
      "ela": 1582,
      "Ġtukuka": 1583,
      "Ġdungupape": 1584,
      "fema": 1585,
      "Ġnumu": 1586,
      "Ġtralka": 1587,
      "Ġtrapum": 1588,
      "ĠchÃ¼fÃ¼": 1589,
      "ama": 1590,
      "so": 1591,
      "tew": 1592,
      "Ġfure": 1593,
      "Ġkata": 1594,
      "kÃ¼leliyiÃ±": 1595,
      "ĠmÃ¼leka": 1596,
      "Ġentunie": 1597,
      "rumen": 1598,
      "ngekefuliyiÃ±": 1599,
      "ria": 1600,
      "ĠngÃ¼Ã±e": 1601,
      "rumeli": 1602,
      "Ġutrufrupa": 1603,
      "Ġngenngepa": 1604,
      "Ġfane": 1605,
      "cion": 1606,
      "Ġgasta": 1607,
      "Ġngillakame": 1608,
      "Ġlongkotukunie": 1609,
      "Ġopina": 1610,
      "ĠnaykÃ¼me": 1611,
      "sta": 1612,
      "yan": 1613,
      "ĠF": 1614,
      "Ġyen": 1615,
      "chew": 1616,
      "Ġiyu": 1617,
      "rumelmi": 1618,
      "Ġdomo": 1619,
      "ymew": 1620,
      "tuliyiÃ±": 1621,
      "fuliyiÃ±": 1622,
      "chiÃ±": 1623,
      "Ġngill": 1624,
      "ngealiyiÃ±": 1625,
      "Ġca": 1626,
      "Ġfeypike": 1627,
      "ĠapÃ¼": 1628,
      "rumey": 1629,
      "rumenge": 1630,
      "rumeymÃ¼": 1631,
      "rumele": 1632,
      "rumeymi": 1633,
      "rumeymÃ¼n": 1634,
      "rumepe": 1635,
      "cu": 1636,
      "mpu": 1637,
      "pen": 1638,
      "wÃ¼n": 1639,
      "ngel": 1640,
      "Ġkime": 1641,
      "afue": 1642,
      "fisa": 1643,
      "ĠnÃ¼tramkay": 1644,
      "pelmi": 1645,
      "nolu": 1646,
      "nien": 1647,
      "nielmi": 1648,
      "Ġinteresa": 1649,
      "ba": 1650,
      "se": 1651,
      "vi": 1652,
      "kefin": 1653,
      "entru": 1654,
      "Ġpingeke": 1655,
      "Ġkimwe": 1656,
      "Ġruka": 1657,
      "Ġde": 1658,
      "Ġtrapi": 1659,
      "Ġamul": 1660,
      "ĠkÃ¼dawle": 1661,
      "Ġchumka": 1662,
      "Ġallku": 1663,
      "mekeliyiÃ±": 1664,
      "fimi": 1665,
      "fiel": 1666,
      "Ġcu": 1667,
      "domo": 1668,
      "Ġapole": 1669,
      "Ġlongkole": 1670,
      "Ġngennge": 1671,
      "Ġkoy": 1672,
      "ĠwalloÃ±ma": 1673,
      "Ġpapeltu": 1674,
      "Ġmatetu": 1675,
      "Ġawar": 1676,
      "Ġindigena": 1677,
      "Ġngillay": 1678,
      "ad": 1679,
      "fo": 1680,
      "ien": 1681,
      "ĠS": 1682,
      "Ġwu": 1683,
      "paliyiÃ±": 1684,
      "eltu": 1685,
      "Ġpipu": 1686,
      "Ġpiafu": 1687,
      "Ġpirume": 1688,
      "mepe": 1689,
      "Ġkale": 1690,
      "puliyiÃ±": 1691,
      "Ġkimentu": 1692,
      "Ġwechew": 1693,
      "Ġkonpay": 1694,
      "yawl": 1695,
      "rkeliyiÃ±": 1696,
      "Ġluku": 1697,
      "ĠnÃ¼tramkaw": 1698,
      "ĠnÃ¼tramkape": 1699,
      "Ġllikale": 1700,
      "Ġpichiche": 1701,
      "Ġpichidomo": 1702,
      "Ġramtukay": 1703,
      "ĠwallÃ±ma": 1704,
      "Ġwingkadungule": 1705,
      "Ġrakidu": 1706,
      "Ġanule": 1707,
      "Ġumawtu": 1708,
      "Ġngolliyaw": 1709,
      "Ġsanchu": 1710,
      "Ġnewen": 1711,
      "Ġkeway": 1712,
      "ĠanÃ¼mche": 1713,
      "Ġinteres": 1714,
      "ĠlupÃ¼m": 1715,
      "ĠwakakamaÃ±kiyaw": 1716,
      "Ġwechewentru": 1717,
      "af": 1718,
      "fÃ¼l": 1719,
      "ltu": 1720,
      "ol": 1721,
      "tilla": 1722,
      "wlu": 1723,
      "Ġym": 1724,
      "ngilla": 1725,
      "kew": 1726,
      "kechefe": 1727,
      "Ġal": 1728,
      "Ġkeche": 1729,
      "Ġmilla": 1730,
      "liÃ±": 1731,
      "Ġfale": 1732,
      "Ġpengel": 1733,
      "katru": 1734,
      "awi": 1735,
      "Ġrpa": 1736,
      "Ġpieli": 1737,
      "Ġkantu": 1738,
      "Ġkudew": 1739,
      "ewkÃ¼le": 1740,
      "Ġwimun": 1741,
      "Ġelme": 1742,
      "Ġelche": 1743,
      "ĠlangÃ¼ma": 1744,
      "Ġyepa": 1745,
      "Ġyengetu": 1746,
      "Ã±may": 1747,
      "ĠkÃ¼pakatru": 1748,
      "chiwentru": 1749,
      "afuiÃ±": 1750,
      "pichiwentru": 1751,
      "Ġchele": 1752,
      "Ġentunge": 1753,
      "ĠkÃ¼dawtu": 1754,
      "Ġchumnge": 1755,
      "Ġdewmay": 1756,
      "Ġdewmaye": 1757,
      "laiÃ±": 1758,
      "ĠchemkÃ¼le": 1759,
      "ĠeluÃ±ma": 1760,
      "Ġkellunie": 1761,
      "Ġcon": 1762,
      "ĠngÃ¼newkÃ¼le": 1763,
      "Ġilonge": 1764,
      "Ġmiyawli": 1765,
      "ĠapÃ¼m": 1766,
      "Ġtrempuram": 1767,
      "ĠÃ¼lkantufe": 1768,
      "Ġngoymange": 1769,
      "Ġchillkatume": 1770,
      "Ġutruftu": 1771,
      "Ġanum": 1772,
      "ĠÃ¼w": 1773,
      "Ġwitrampu": 1774,
      "Ġinaramtu": 1775,
      "Ġweupime": 1776,
      "ĠkÃ¼melka": 1777,
      "leyngÃ¼n": 1778,
      "rkudew": 1779,
      "Ġamatukefu": 1780,
      "kechile": 1781,
      "Ġpiwkey": 1782,
      "ĠduamkÃ¼le": 1783,
      "Ġweshatule": 1784,
      "ĠmÃ¼pÃ¼yaw": 1785,
      "Ġawkantufe": 1786,
      "ĠantÃ¼le": 1787,
      "Ġmunul": 1788,
      "Ġllowdungu": 1789,
      "Ġmapuchedungule": 1790,
      "Ġtrekayaw": 1791,
      "cia": 1792,
      "Ġweshakelukiyaw": 1793,
      "ĠÃ±idolkÃ¼nu": 1794,
      "ĠngÃ¼la": 1795,
      "Ġayetukechefe": 1796,
      "ĠwenÃ¼ywen": 1797,
      "Ġawarkudew": 1798,
      "Ġellapichiwentru": 1799,
      "Ġindigenange": 1800,
      "ĠMa": 1801,
      "Ġpellke": 1802,
      "Ġpellkele": 1803,
      "ĠmaÃ±um": 1804,
      "ĠngillatuÃ±manie": 1805,
      "Ġviajeyaw": 1806,
      "Ġtrananag": 1807,
      "Ġkutrantukunu": 1808,
      "Ġweycha": 1809,
      "Ġeduca": 1810,
      "Ġprivatiza": 1811,
      "ĠwÃ¼nen": 1812,
      "Ġyeniel": 1813,
      "Ġkimweupi": 1814,
      "Ġallkutule": 1815,
      "Ġkoyla": 1816,
      "Ġinteresay": 1817,
      "Ġwitrampura": 1818,
      "adu": 1819,
      "ce": 1820,
      "gange": 1821,
      "mÃ¼": 1822,
      "mwlu": 1823,
      "pie": 1824,
      "rawi": 1825,
      "sanchu": 1826,
      "tayawÃ¼l": 1827,
      "wle": 1828,
      "zale": 1829,
      "ĠN": 1830,
      "ĠP": 1831,
      "Ġti": 1832,
      "Ã¼le": 1833,
      "tuka": 1834,
      "kepu": 1835,
      "Ġangka": 1836,
      "leftripa": 1837,
      "Ġpenie": 1838,
      "Ġpefall": 1839,
      "kalmi": 1840,
      "kafe": 1841,
      "kafem": 1842,
      "karamtu": 1843,
      "llmi": 1844,
      "llange": 1845,
      "ĠkÃ¼llu": 1846,
      "patu": 1847,
      "manej": 1848,
      "awkiÃ±": 1849,
      "Ġpifu": 1850,
      "Ġpipe": 1851,
      "Ġpikunu": 1852,
      "Ġpingefu": 1853,
      "Ġpingekey": 1854,
      "Ġpingerke": 1855,
      "Ġfema": 1856,
      "Ġkangetu": 1857,
      "Ġkimdungu": 1858,
      "ĠkimÃ¼l": 1859,
      "Ġkimkerke": 1860,
      "Ġkimngilla": 1861,
      "Ġkimmanej": 1862,
      "Ġiy": 1863,
      "Ġiltu": 1864,
      "ntuyaw": 1865,
      "Ġmanej": 1866,
      "Ġnief": 1867,
      "Ġnieel": 1868,
      "Ġwirawi": 1869,
      "ĠelkÃ¼nu": 1870,
      "Ġyekerke": 1871,
      "Ġyetumeke": 1872,
      "Ġyekafem": 1873,
      "Ġtukumeke": 1874,
      "Ġtukuyawl": 1875,
      "ĠkÃ¼paw": 1876,
      "ĠkÃ¼pakon": 1877,
      "ĠkÃ¼paadu": 1878,
      "chiwud": 1879,
      "Ġfeyngerke": 1880,
      "Ġchengerke": 1881,
      "Ġayul": 1882,
      "Ġayeltu": 1883,
      "ngekelafuy": 1884,
      "Ġdungume": 1885,
      "Ġdungumeke": 1886,
      "Ġdunguchefe": 1887,
      "Ġngillapay": 1888,
      "ĠmÃ¼leker": 1889,
      "chem": 1890,
      "ĠkonÃ¼": 1891,
      "Ġkonwe": 1892,
      "Ġkonputu": 1893,
      "rukafe": 1894,
      "ĠfemÃ¼": 1895,
      "ĠkÃ¼dawke": 1896,
      "ĠkÃ¼dawkÃ¼le": 1897,
      "ĠkÃ¼dawpay": 1898,
      "ĠkÃ¼dawngefu": 1899,
      "Ġdewmake": 1900,
      "Ġdewmanie": 1901,
      "Ġdewmakele": 1902,
      "Ġdewmarukafe": 1903,
      "Ġkimelmapudungu": 1904,
      "ĠkatruÃ±ma": 1905,
      "Ġkatruntuku": 1906,
      "Ġkatrufem": 1907,
      "Ġchemke": 1908,
      "Ġchemkerke": 1909,
      "Ġadngetu": 1910,
      "Ġeluye": 1911,
      "Ġmapudungun": 1912,
      "Ġtrekale": 1913,
      "kunuÃ±ma": 1914,
      "wallo": 1915,
      "Ġtripay": 1916,
      "Ġngillatume": 1917,
      "Ġngillatupu": 1918,
      "Ġngillatuyaw": 1919,
      "Ġngillatukel": 1920,
      "ĠallkÃ¼tumeke": 1921,
      "Ġnentungetu": 1922,
      "Ġkellumu": 1923,
      "Ġkellukew": 1924,
      "Ġfeypingerke": 1925,
      "Ġkewatu": 1926,
      "Ġwingkaw": 1927,
      "Ġilotuka": 1928,
      "ĠkintuÃ±ma": 1929,
      "Ġmiyawl": 1930,
      "ĠmiyawÃ¼ll": 1931,
      "Ġnagad": 1932,
      "Ġmapuchekechi": 1933,
      "layay": 1934,
      "ĠngÃ¼makon": 1935,
      "ĠÃ¼lkantule": 1936,
      "ĠÃ¼lkantuyaw": 1937,
      "Ġyewenie": 1938,
      "Ġngoymanie": 1939,
      "ĠlladkÃ¼dungu": 1940,
      "Ġwirife": 1941,
      "Ġwirintuku": 1942,
      "Ġwingkadungutu": 1943,
      "kefuyngÃ¼n": 1944,
      "ĠwiÃ±ome": 1945,
      "Ġfamnag": 1946,
      "Ġfamtripa": 1947,
      "Ġfamnaw": 1948,
      "Ġwirarke": 1949,
      "Ġinay": 1950,
      "ĠadumÃ¼": 1951,
      "Ġputokokerke": 1952,
      "ĠwedaÃ±ma": 1953,
      "Ġwedapay": 1954,
      "Ġwedalka": 1955,
      "Ġnawpu": 1956,
      "Ġnawfem": 1957,
      "Ġaftuku": 1958,
      "Ġchillkatuku": 1959,
      "Ġngenpi": 1960,
      "ĠtrawÃ¼le": 1961,
      "Ġanukunu": 1962,
      "Ġngoymatu": 1963,
      "Ġngoymantuku": 1964,
      "Ġwitrale": 1965,
      "ĠÃ±ampe": 1966,
      "ĠÃ±amkon": 1967,
      "Ġinakaramtu": 1968,
      "Ġweupife": 1969,
      "Ġpuram": 1970,
      "ĠkiÃ±ew": 1971,
      "Ġchokunu": 1972,
      "ĠlangÃ¼mngerke": 1973,
      "ĠkÃ¼melke": 1974,
      "Ġchaftu": 1975,
      "ĠkiÃ±ekele": 1976,
      "ĠkiÃ±engefu": 1977,
      "tukumaw": 1978,
      "Ġwallowallo": 1979,
      "konkÃ¼le": 1980,
      "noael": 1981,
      "Ġpurrun": 1982,
      "amun": 1983,
      "Ġyafulu": 1984,
      "Ġdullitu": 1985,
      "Ġwirarw": 1986,
      "Ġwirarkon": 1987,
      "ĠrelkÃ¼le": 1988,
      "Ġrelkunu": 1989,
      "Ġrelkerke": 1990,
      "Ġtralkatungefu": 1991,
      "Ġleftripa": 1992,
      "Ġlefleftripa": 1993,
      "ĠfÃ¼lfÃ¼l": 1994,
      "Ġmasatule": 1995,
      "ĠnengÃ¼ma": 1996,
      "Ġpepika": 1997,
      "Ġfalingetu": 1998,
      "Ġestudiale": 1999,
      "ĠwedwedkÃ¼le": 2000,
      "Ġyafutukunu": 2001,
      "Ġmunulu": 2002,
      "Ġmunulongko": 2003,
      "Ġrespetaw": 2004,
      "Ġrespetay": 2005,
      "ĠlawentuÃ±mu": 2006,
      "Ġcastigange": 2007,
      "ĠkÃ¼pakimi": 2008,
      "Ġchiwudchiwud": 2009,
      "Ġyemetu": 2010,
      "ĠpÃ¼trÃ¼le": 2011,
      "Ġkawel": 2012,
      "Ġwemunentunge": 2013,
      "Ġkureyaw": 2014,
      "Ġweshakelutule": 2015,
      "Ġchumlerpu": 2016,
      "Ġchumleaf": 2017,
      "Ġkutrankawle": 2018,
      "Ġpamulongko": 2019,
      "Ġnewentu": 2020,
      "ĠkurÃ¼le": 2021,
      "ĠenseÃ±ange": 2022,
      "Ġpipingeker": 2023,
      "Ġwichake": 2024,
      "Ġwellewel": 2025,
      "Ġkuchatu": 2026,
      "Ġkuchafo": 2027,
      "Ġadentule": 2028,
      "Ġacordanie": 2029,
      "Ġpofrele": 2030,
      "Ġayetufall": 2031,
      "Ġkimwiri": 2032,
      "Ġnamuntuyaw": 2033,
      "Ġwitranpuram": 2034,
      "ĠawkiÃ±awkiÃ±": 2035,
      "Ġkisulewe": 2036,
      "Ġellay": 2037,
      "ĠfÃ¼chache": 2038,
      "Ġtrokiw": 2039,
      "Ġpinger": 2040,
      "Ġpingekunu": 2041,
      "Ġpilerpu": 2042,
      "ĠkuÃ±iwtu": 2043,
      "ĠkimÃ¼rpu": 2044,
      "Ġdungulerpu": 2045,
      "ĠngillatuÃ±male": 2046,
      "Ġkofkefe": 2047,
      "ĠangkÃ¼mmeke": 2048,
      "Ġpelotatumeke": 2049,
      "Ġporotokechi": 2050,
      "Ġchompirutule": 2051,
      "Ġkuruftukumaw": 2052,
      "ĠpunakonkÃ¼le": 2053,
      "Ġkurintuku": 2054,
      "Ġingkukunu": 2055,
      "ĠkÃ¼pakÃ¼dawtule": 2056,
      "Ġngoyllatu": 2057,
      "Ġmotri": 2058,
      "Ġmotrile": 2059,
      "ĠpodÃ¼l": 2060,
      "ĠnguÃ±ele": 2061,
      "ĠpewÃ¼dkiyaw": 2062,
      "Ġvisita": 2063,
      "ĠvisitayawÃ¼l": 2064,
      "Ġarrenda": 2065,
      "ĠneyfÃ¼kÃ¼nu": 2066,
      "Ġkantale": 2067,
      "Ġdirigentekunu": 2068,
      "ĠngÃ¼rÃ¼fnie": 2069,
      "Ġwaychuf": 2070,
      "Ġwaychuftripa": 2071,
      "ĠwedozkÃ¼nu": 2072,
      "Ġtukutulu": 2073,
      "Ġpurakintunie": 2074,
      "Ġwallpachem": 2075,
      "Ġpingekef": 2076,
      "Ġanuleka": 2077,
      "Ġpiwkeyew": 2078,
      "ĠkimÃ¼lkantu": 2079,
      "Ġmaneja": 2080,
      "Ġwirawira": 2081,
      "ĠkÃ¼paadumwlu": 2082,
      "Ġdungumeker": 2083,
      "ĠkatruntukuÃ±ma": 2084,
      "ĠkatrufemÃ±ma": 2085,
      "Ġnagadkintu": 2086,
      "ĠlawentuÃ±mupay": 2087,
      "Ġkuchafotra": 2088,
      "dayaw": 2089,
      "enge": 2090,
      "eymÃ¼": 2091,
      "ele": 2092,
      "eymi": 2093,
      "eymÃ¼n": 2094,
      "epe": 2095,
      "famtu": 2096,
      "gu": 2097,
      "lwe": 2098,
      "non": 2099,
      "os": 2100,
      "olu": 2101,
      "wy": 2102,
      "wnge": 2103,
      "wymÃ¼": 2104,
      "wli": 2105,
      "wymi": 2106,
      "wymÃ¼n": 2107,
      "wpe": 2108,
      "wlmi": 2109,
      "yyaw": 2110,
      "ĠB": 2111,
      "ĠG": 2112,
      "ĠL": 2113,
      "Ã¼me": 2114,
      "Ġltuku": 2115,
      "tukunu": 2116,
      "Ġpon": 2117,
      "kekon": 2118,
      "Ġniel": 2119,
      "Ġwche": 2120,
      "Ġlepu": 2121,
      "Ġleputu": 2122,
      "Ġtuntu": 2123,
      "kange": 2124,
      "kaymÃ¼": 2125,
      "kali": 2126,
      "kaymi": 2127,
      "kaymÃ¼n": 2128,
      "kape": 2129,
      "Ġliftu": 2130,
      "kefueyÃ±mew": 2131,
      "Ġpime": 2132,
      "Ġpikel": 2133,
      "trayyaw": 2134,
      "Ġkaletu": 2135,
      "Ġkimtu": 2136,
      "ĠkimngÃ¼": 2137,
      "ĠkimkÃ¼l": 2138,
      "Ġkimfem": 2139,
      "ntukele": 2140,
      "Ġwemuntu": 2141,
      "Ġnier": 2142,
      "ĠnieÃ±mu": 2143,
      "Ġwimuntu": 2144,
      "nuyu": 2145,
      "Ġlapa": 2146,
      "Ġlakutu": 2147,
      "ĠyeÃ±ma": 2148,
      "Ġyelel": 2149,
      "Ġyerpu": 2150,
      "Ġtukukunu": 2151,
      "Ġtukungeker": 2152,
      "Ã±mangefu": 2153,
      "ĠkÃ¼patu": 2154,
      "ĠkÃ¼padungu": 2155,
      "ĠkÃ¼pado": 2156,
      "ĠkÃ¼pawi": 2157,
      "ĠkÃ¼patre": 2158,
      "ĠkÃ¼pakekon": 2159,
      "piw": 2160,
      "Ġepe": 2161,
      "Ġfeypie": 2162,
      "Ġchema": 2163,
      "Ġchengefu": 2164,
      "Ġdungudungu": 2165,
      "kÃ¼letu": 2166,
      "kÃ¼leke": 2167,
      "Ġtrapitu": 2168,
      "Ġmapungetu": 2169,
      "ĠmÃ¼letu": 2170,
      "ĠmÃ¼lepe": 2171,
      "ĠmÃ¼leye": 2172,
      "ĠmÃ¼lekerke": 2173,
      "ĠmÃ¼lemÃ¼": 2174,
      "Ġentuke": 2175,
      "chengefu": 2176,
      "rungku": 2177,
      "Ã¼lle": 2178,
      "Ġfemke": 2179,
      "ĠkÃ¼dawkechi": 2180,
      "ĠkÃ¼dawnaw": 2181,
      "Ġallka": 2182,
      "Ġallkatu": 2183,
      "Ġkimelkerke": 2184,
      "mekeker": 2185,
      "rea": 2186,
      "Ġchemkunu": 2187,
      "ĠchemchiÃ±": 2188,
      "ĠadkÃ¼nu": 2189,
      "Ġelumu": 2190,
      "Ġmapudunguke": 2191,
      "Ġmapudunguntu": 2192,
      "Ġmapudunguletu": 2193,
      "ĠngÃ¼re": 2194,
      "Ġllikatu": 2195,
      "wangku": 2196,
      "Ġtripal": 2197,
      "Ġtripakerke": 2198,
      "ĠnÃ¼tramkapa": 2199,
      "Ġkutranamun": 2200,
      "Ġkutranpiw": 2201,
      "oro": 2202,
      "Ġakul": 2203,
      "ĠallkÃ¼Ã±ma": 2204,
      "ĠnentuÃ±ma": 2205,
      "Ġnentunie": 2206,
      "Ġkellume": 2207,
      "ĠkÃ¼mekunu": 2208,
      "ĠnakÃ¼": 2209,
      "Ġllikanie": 2210,
      "ĠllikakÃ¼l": 2211,
      "Ġpuray": 2212,
      "Ġfeypir": 2213,
      "Ġfeypipe": 2214,
      "Ġkewangeker": 2215,
      "Ġpichiletu": 2216,
      "Ġramtupay": 2217,
      "Ġnuw": 2218,
      "ĠnukÃ¼le": 2219,
      "Ġilokaw": 2220,
      "Ġkintumi": 2221,
      "Ġfeler": 2222,
      "Ġfelekerke": 2223,
      "ĠnagkÃ¼le": 2224,
      "Ġtremkerke": 2225,
      "ĠtremkÃ¼letu": 2226,
      "ĠngÃ¼may": 2227,
      "Ġrupay": 2228,
      "ĠlladkÃ¼tumeke": 2229,
      "Ġwiritu": 2230,
      "Ġwirikon": 2231,
      "Ġwingkadunguka": 2232,
      "Ġwingkadungungele": 2233,
      "Ġadkintuyaw": 2234,
      "Ġadkintukepu": 2235,
      "ĠwiÃ±odungu": 2236,
      "Ġfamkunu": 2237,
      "Ġfamfamtu": 2238,
      "Ġinanie": 2239,
      "ĠinayawÃ¼l": 2240,
      "Ġtranakunu": 2241,
      "Ġkuydayaw": 2242,
      "Ġputokol": 2243,
      "ĠweÃ±engepa": 2244,
      "ĠweÃ±ekunuÃ±ma": 2245,
      "ĠafkÃ¼le": 2246,
      "Ġapoletu": 2247,
      "ĠngenÃ±mangefu": 2248,
      "Ġanutuku": 2249,
      "Ġtraftu": 2250,
      "ĠtrafÃ¼m": 2251,
      "Ġwitray": 2252,
      "ĠÃ±amyaw": 2253,
      "Ġkom": 2254,
      "Ġumawle": 2255,
      "ĠumawkÃ¼le": 2256,
      "Ġweupitunge": 2257,
      "ĠfalÃ¼l": 2258,
      "ĠfalÃ¼le": 2259,
      "Ġpurrume": 2260,
      "Ġkuydapa": 2261,
      "nengÃ¼m": 2262,
      "ĠkÃ¼melkay": 2263,
      "Ġfendeme": 2264,
      "Ġwallontu": 2265,
      "Ġmongel": 2266,
      "Ġwellele": 2267,
      "kelafun": 2268,
      "Ġnuyunuyu": 2269,
      "Ġtalla": 2270,
      "Ġtallange": 2271,
      "Ġlelitu": 2272,
      "Ġlelinie": 2273,
      "lengepa": 2274,
      "ĠpÃ¼trÃ¼lle": 2275,
      "Ġtralkatukon": 2276,
      "Ġprofesornge": 2277,
      "Ġprofesorngeke": 2278,
      "Ġprofesormekeker": 2279,
      "ĠfÃ¼lkon": 2280,
      "Ġurkutule": 2281,
      "ĠÃ¼yel": 2282,
      "ĠkÃ¼melkaletu": 2283,
      "kiyawpe": 2284,
      "ngÃ¼paf": 2285,
      "Ġpunetuku": 2286,
      "Ġlawentuchengefu": 2287,
      "ĠkarÃ¼le": 2288,
      "ĠnengÃ¼mnengÃ¼m": 2289,
      "Ġwecheche": 2290,
      "Ġpultrunnie": 2291,
      "ĠtÃ¼": 2292,
      "Ġamuleka": 2293,
      "ĠwÃ¼netu": 2294,
      "Ġcastigangeker": 2295,
      "Ġpipiye": 2296,
      "Ġadumuluw": 2297,
      "Ã¼ykiyawpe": 2298,
      "Ġkewayaw": 2299,
      "Ġreyipe": 2300,
      "ĠangkÃ¼nag": 2301,
      "Ġestudiapatu": 2302,
      "Ġkimelfenge": 2303,
      "Ġpiwkekechi": 2304,
      "ĠkÃ¼pakimmapudungu": 2305,
      "trefku": 2306,
      "Ġtrarinie": 2307,
      "Ġpelontuker": 2308,
      "Ġchaliw": 2309,
      "Ġkallpi": 2310,
      "Ġtrir": 2311,
      "Ġtrira": 2312,
      "Ġmasatume": 2313,
      "ĠenseÃ±ache": 2314,
      "Ġelkunurpu": 2315,
      "Ġtraytrayyaw": 2316,
      "Ġkonpafema": 2317,
      "Ġdewmaiy": 2318,
      "Ġkisuleka": 2319,
      "Ġwangkuwangku": 2320,
      "Ġrungkurungku": 2321,
      "ĠngÃ¼pafngÃ¼paf": 2322,
      "Ġtrefkutrefku": 2323,
      "ĠwÃ¼zatu": 2324,
      "ĠinafulkÃ¼le": 2325,
      "Ġpewmange": 2326,
      "ĠtrananawÃ¼": 2327,
      "Ġtukulngetu": 2328,
      "ĠpÃ¼trÃ¼nle": 2329,
      "Ġralikechi": 2330,
      "Ġweych": 2331,
      "Ġeduc": 2332,
      "Ġfemkelle": 2333,
      "Ġnochilka": 2334,
      "Ġenekechi": 2335,
      "Ġchamalltu": 2336,
      "ĠwalloÃ±me": 2337,
      "ĠaretuÃ¼ykiyawpe": 2338,
      "Ġsondatule": 2339,
      "Ġprivatizale": 2340,
      "ĠTemucoche": 2341,
      "ĠallfÃ¼luw": 2342,
      "Ġkuydaniepa": 2343,
      "Ġwelultuku": 2344,
      "ĠangÃ¼mel": 2345,
      "Ġkultrun": 2346,
      "Ġkultruntukele": 2347,
      "Ġwemakechile": 2348,
      "ĠkÃ¼pailosanchu": 2349,
      "ĠayÃ¼kÃ¼leke": 2350,
      "ĠtrapÃ¼m": 2351,
      "Ġungum": 2352,
      "Ġlululkiyaw": 2353,
      "ĠayeÃ±mange": 2354,
      "Ġchapamtukunu": 2355,
      "Ġrungofal": 2356,
      "Ġtonfunag": 2357,
      "ĠsakiÃ±ngefu": 2358,
      "Ġhuasole": 2359,
      "ĠllamkÃ¼": 2360,
      "ĠllamkÃ¼m": 2361,
      "Ġtringartuku": 2362,
      "Ġellkatripa": 2363,
      "Ġdesmaya": 2364,
      "Ġshampookechi": 2365,
      "Ġpamupiwke": 2366,
      "Ġpamupiwkele": 2367,
      "ĠllÃ¼munÃ¼r": 2368,
      "Ġcalzoncillotule": 2369,
      "Ġlongkotukunieka": 2370,
      "Ġchumkakunu": 2371,
      "Ġwitrampuray": 2372,
      "Ġyekafempu": 2373,
      "ĠkÃ¼pawiÃ±o": 2374,
      "Ġwingkawche": 2375,
      "ĠfamnagkÃ¼le": 2376,
      "Ġpurrunkiyaw": 2377,
      "Ġwellewelletu": 2378,
      "Ġleputufe": 2379,
      "ĠkÃ¼padoctor": 2380,
      "ĠkÃ¼pawiri": 2381,
      "ĠkÃ¼patrepe": 2382,
      "ĠmÃ¼lemÃ¼lengepa": 2383,
      "ĠchemchiÃ±ma": 2384,
      "Ġllikatukunu": 2385,
      "Ġfamfamtuw": 2386,
      "ĠfalÃ¼lentu": 2387,
      "Ġtallangetu": 2388,
      "ĠkÃ¼pailosanchutu": 2389,
      "den": 2390,
      "eyu": 2391,
      "eymew": 2392,
      "fa": 2393,
      "Ġnien": 2394,
      "Ġpuwa": 2395,
      "Ġkimchefe": 2396,
      "entukutu": 2397,
      "Ġwengetu": 2398,
      "Ġyengepa": 2399,
      "Ġtukulka": 2400,
      "ĠkÃ¼pape": 2401,
      "Ġdungupe": 2402,
      "Ġufisa": 2403,
      "Ġentuche": 2404,
      "Ġentufema": 2405,
      "Ġamutupe": 2406,
      "Ġlukutu": 2407,
      "laymi": 2408,
      "niey": 2409,
      "Ġchemngetu": 2410,
      "ĠtripakÃ¼l": 2411,
      "ĠÃ±a": 2412,
      "ĠÃ±ama": 2413,
      "Ġkellupe": 2414,
      "Ġkintupape": 2415,
      "Ġyewentukutu": 2416,
      "ĠnawÃ±ma": 2417,
      "ĠchillkatukÃ¼l": 2418,
      "Ġtrafmepe": 2419,
      "nole": 2420,
      "noli": 2421,
      "Ġingkay": 2422,
      "ĠmÃ¼trÃ¼me": 2423,
      "ĠwÃ¼z": 2424,
      "ĠmÃ¼trÃ¼mpe": 2425,
      "Ġoperangetu": 2426,
      "tuyngÃ¼n": 2427,
      "Ġwilluletu": 2428,
      "Ġfama": 2429,
      "Ġchafo": 2430,
      "Ġtrapuma": 2431,
      "afiel": 2432,
      "Ġtrur": 2433,
      "ĠmaÃ±ume": 2434,
      "ĠwilifÃ±ma": 2435,
      "Ġfemngechilewe": 2436,
      "ĠaluÃ±may": 2437,
      "ĠkÃ¼payenie": 2438,
      "Ġiyufal": 2439,
      "Ġpiafufi": 2440,
      "Ġrakiduama": 2441,
      "Ġamatukefufi": 2442,
      "ĠkonwekÃ¼l": 2443,
      "Ġkintumill": 2444,
      "Ġtukulkawa": 2445,
      "bli": 2446,
      "ec": 2447,
      "ero": 2448,
      "gla": 2449,
      "hu": 2450,
      "olo": 2451,
      "sto": 2452,
      "ĠE": 2453,
      "ĠI": 2454,
      "ĠR": 2455,
      "ngo": 2456,
      "Ġkor": 2457,
      "tulay": 2458,
      "fuiÃ±": 2459,
      "Ġntu": 2460,
      "limi": 2461,
      "iÃ±mew": 2462,
      "Ġpiae": 2463,
      "ayu": 2464,
      "ĠfemkÃ¼l": 2465,
      "Ġchumpape": 2466,
      "kota": 2467,
      "lafin": 2468,
      "nienge": 2469,
      "nieymÃ¼": 2470,
      "niele": 2471,
      "nieli": 2472,
      "nieymi": 2473,
      "nieymÃ¼n": 2474,
      "niepe": 2475,
      "Ġeluae": 2476,
      "Ġeluafue": 2477,
      "ĠnÃ¼tramkawa": 2478,
      "Ġpuwye": 2479,
      "Ġilongepa": 2480,
      "Ġyewentukunie": 2481,
      "Ġadkintuae": 2482,
      "Ġkuydape": 2483,
      "ĠyewekÃ¼l": 2484,
      "Ġbu": 2485,
      "Ġve": 2486,
      "Ġpepilka": 2487,
      "Ġgu": 2488,
      "que": 2489,
      "Ġyelmeae": 2490,
      "afimÃ¼n": 2491,
      "ĠkonÃ¼mpakee": 2492,
      "Ġarrendanie": 2493,
      "ĠAn": 2494,
      "Ġter": 2495,
      "Ġunguma": 2496,
      "Ġingkatuche": 2497,
      "cula": 2498,
      "Ġkimentume": 2499,
      "Ġllowdunguae": 2500,
      "ĠngillatuÃ±maniekee": 2501,
      "ĠkimngÃ¼re": 2502,
      "ĠnuwkÃ¼lepe": 2503,
      "etew": 2504,
      "lle": 2505,
      "ndo": 2506,
      "tÃ¼": 2507,
      "ĠK": 2508,
      "kefiy": 2509,
      "Ġngela": 2510,
      "kawa": 2511,
      "kÃ¼lli": 2512,
      "kÃ¼llmi": 2513,
      "Ġkimpa": 2514,
      "Ġem": 2515,
      "ngekelay": 2516,
      "fey": 2517,
      "filu": 2518,
      "ĠallkÃ¼me": 2519,
      "Ġfeypiafue": 2520,
      "ngeno": 2521,
      "ĠayiwÃ¼": 2522,
      "Ġwelulkawa": 2523,
      "gi": 2524,
      "ja": 2525,
      "mp": 2526,
      "nte": 2527,
      "rma": 2528,
      "sti": 2529,
      "tan": 2530,
      "zu": 2531,
      "Ġj": 2532,
      "Ġsu": 2533,
      "Ġsi": 2534,
      "Ġza": 2535,
      "ymu": 2536,
      "Ġpla": 2537,
      "fuyu": 2538,
      "Ġam": 2539,
      "lelu": 2540,
      "Ã±a": 2541,
      "Ġmen": 2542,
      "lidad": 2543,
      "mimi": 2544,
      "chay": 2545,
      "kaliyiÃ±": 2546,
      "paÃ±": 2547,
      "paenew": 2548,
      "mana": 2549,
      "kefulu": 2550,
      "ĠrÃ¼": 2551,
      "Ġkuse": 2552,
      "Ġweku": 2553,
      "amente": 2554,
      "Ġmeli": 2555,
      "ona": 2556,
      "Ġpar": 2557,
      "ayngÃ¼n": 2558,
      "anti": 2559,
      "yawi": 2560,
      "ngekefuiÃ±": 2561,
      "res": 2562,
      "regla": 2563,
      "fiyu": 2564,
      "fimÃ¼n": 2565,
      "dio": 2566,
      "rumeliyiÃ±": 2567,
      "layngÃ¼n": 2568,
      "ngeyngÃ¼n": 2569,
      "aelmi": 2570,
      "Ġwenu": 2571,
      "Ġnovi": 2572,
      "nero": 2573,
      "Ġngula": 2574,
      "kelan": 2575,
      "Ġher": 2576,
      "wingÃ¼n": 2577,
      "sidad": 2578,
      "Ġse": 2579,
      "Ġso": 2580,
      "cina": 2581,
      "Ġarregla": 2582,
      "genti": 2583,
      "Ġtruku": 2584,
      "kelaiÃ±": 2585,
      "Ġtunte": 2586,
      "ĠFeli": 2587,
      "ĠkompaÃ±": 2588,
      "ĠtÃ¼fa": 2589,
      "Ġnieno": 2590,
      "Ġzapa": 2591,
      "aen": 2592,
      "aey": 2593,
      "afin": 2594,
      "dan": 2595,
      "delmi": 2596,
      "eliyiÃ±": 2597,
      "eiÃ±mew": 2598,
      "fÃ¼n": 2599,
      "ielmi": 2600,
      "lmÃ¼n": 2601,
      "ĠD": 2602,
      "fulu": 2603,
      "kentu": 2604,
      "keafimÃ¼n": 2605,
      "tren": 2606,
      "Ġmam": 2607,
      "Ġfill": 2608,
      "Ġfilla": 2609,
      "ĠpeÃ±i": 2610,
      "elan": 2611,
      "kefueyew": 2612,
      "awe": 2613,
      "Ġchew": 2614,
      "Ġkay": 2615,
      "Ġiyael": 2616,
      "Ġwim": 2617,
      "Ġlaf": 2618,
      "Ġuni": 2619,
      "rkelay": 2620,
      "fingÃ¼n": 2621,
      "Ġfeypiafu": 2622,
      "Ġesta": 2623,
      "Ġargenti": 2624,
      "ĠNo": 2625,
      "ĠmamÃ¼ll": 2626,
      "Colo": 2627,
      "ai": 2628,
      "ami": 2629,
      "afiiÃ±": 2630,
      "bo": 2631,
      "bu": 2632,
      "bro": 2633,
      "bsi": 2634,
      "cra": 2635,
      "cipa": 2636,
      "cul": 2637,
      "cer": 2638,
      "ccion": 2639,
      "camente": 2640,
      "dkÃ¼": 2641,
      "eb": 2642,
      "gle": 2643,
      "ida": 2644,
      "ipo": 2645,
      "ibli": 2646,
      "icula": 2647,
      "ji": 2648,
      "jo": 2649,
      "ltr": 2650,
      "lkatu": 2651,
      "nta": 2652,
      "olli": 2653,
      "rpi": 2654,
      "rro": 2655,
      "rso": 2656,
      "stru": 2657,
      "san": 2658,
      "tel": 2659,
      "tela": 2660,
      "um": 2661,
      "ulu": 2662,
      "uer": 2663,
      "va": 2664,
      "vange": 2665,
      "ver": 2666,
      "wliyiÃ±": 2667,
      "ya": 2668,
      "zo": 2669,
      "ĠH": 2670,
      "ĠV": 2671,
      "Ġtor": 2672,
      "Ġje": 2673,
      "ngall": 2674,
      "ngeiÃ±": 2675,
      "ngetule": 2676,
      "tura": 2677,
      "ĠpÃ¼tra": 2678,
      "Ġplan": 2679,
      "Ġah": 2680,
      "Ġali": 2681,
      "Ġachawall": 2682,
      "Ġagu": 2683,
      "Ġaero": 2684,
      "les": 2685,
      "leiÃ±": 2686,
      "lechi": 2687,
      "leyu": 2688,
      "letule": 2689,
      "Ġkechu": 2690,
      "lil": 2691,
      "limÃ¼n": 2692,
      "miÃ±": 2693,
      "mien": 2694,
      "mion": 2695,
      "cho": 2696,
      "chen": 2697,
      "Ġfie": 2698,
      "Ġflo": 2699,
      "Ġpepu": 2700,
      "Ġtute": 2701,
      "ĠkÃ¼tra": 2702,
      "paiÃ±": 2703,
      "kefuenew": 2704,
      "Ġray": 2705,
      "Ġpilkatu": 2706,
      "ier": 2707,
      "Ġfemi": 2708,
      "kÃ¼ll": 2709,
      "Ġkal": 2710,
      "ĠkaÃ±": 2711,
      "Ġkare": 2712,
      "Ġkaro": 2713,
      "Ġkarpi": 2714,
      "Ġkush": 2715,
      "Ġkimche": 2716,
      "Ġitro": 2717,
      "Ġelkaw": 2718,
      "Ġmedi": 2719,
      "oni": 2720,
      "Ġpal": 2721,
      "Ġpas": 2722,
      "Ġpata": 2723,
      "ĠkÃ¼paf": 2724,
      "chiw": 2725,
      "rao": 2726,
      "rado": 2727,
      "rano": 2728,
      "piwe": 2729,
      "Ġevange": 2730,
      "ĠchedkÃ¼": 2731,
      "ano": 2732,
      "anqui": 2733,
      "antÃ¼": 2734,
      "Ġuye": 2735,
      "tal": 2736,
      "tarea": 2737,
      "Ġyall": 2738,
      "rita": 2739,
      "rino": 2740,
      "mekeyngÃ¼n": 2741,
      "testa": 2742,
      "rero": 2743,
      "Ġeluafu": 2744,
      "ngealu": 2745,
      "finge": 2746,
      "Ġfish": 2747,
      "ĠÃ±u": 2748,
      "orte": 2749,
      "dera": 2750,
      "Ġpuwy": 2751,
      "Ġmun": 2752,
      "laya": 2753,
      "wetulay": 2754,
      "tica": 2755,
      "Ġrang": 2756,
      "Ġkuyfi": 2757,
      "Ġwente": 2758,
      "payngÃ¼n": 2759,
      "Ġtrafku": 2760,
      "Ġkora": 2761,
      "ĠkoÃ±i": 2762,
      "Ġespe": 2763,
      "Ġeskota": 2764,
      "Ġobli": 2765,
      "muni": 2766,
      "esicula": 2767,
      "norume": 2768,
      "kelafu": 2769,
      "Ġhec": 2770,
      "erta": 2771,
      "ĠfÃ¼lang": 2772,
      "Ġvie": 2773,
      "Ġvesicula": 2774,
      "Ġpermi": 2775,
      "ĠsaÃ±": 2776,
      "nielu": 2777,
      "loni": 2778,
      "Ġgo": 2779,
      "Ġgra": 2780,
      "Ġgan": 2781,
      "Ġgol": 2782,
      "Ġchicha": 2783,
      "ĠColo": 2784,
      "Ġmawida": 2785,
      "Ġkankan": 2786,
      "Ġcebo": 2787,
      "Ġtruf": 2788,
      "ĠkonÃ¼mpake": 2789,
      "ĠMar": 2790,
      "kelaymi": 2791,
      "Ġcoloni": 2792,
      "Ġdespu": 2793,
      "Ġrele": 2794,
      "Ġwelulkaw": 2795,
      "Ġtec": 2796,
      "Ġtele": 2797,
      "Ã±ilwe": 2798,
      "ago": 2799,
      "Ġcato": 2800,
      "Ġcaza": 2801,
      "Ġcamion": 2802,
      "via": 2803,
      "Ġdesa": 2804,
      "Ġcuch": 2805,
      "ĠSan": 2806,
      "Ġymu": 2807,
      "Ġalma": 2808,
      "Ġcontesta": 2809,
      "ĠMari": 2810,
      "ĠngillatuÃ±manieke": 2811,
      "Ġponwi": 2812,
      "Ġpontro": 2813,
      "Ġnielay": 2814,
      "Ġepew": 2815,
      "ĠtÃ¼fey": 2816,
      "ĠÃ±aÃ±a": 2817,
      "hual": 2818,
      "ĠEli": 2819,
      "Ġempe": 2820,
      "gio": 2821,
      "Ġsubsi": 2822,
      "ĠrÃ¼pÃ¼": 2823,
      "Ġparti": 2824,
      "antiago": 2825,
      "ĠDa": 2826,
      "ĠNoe": 2827,
      "iblia": 2828,
      "telaf": 2829,
      "versidad": 2830,
      "Ġfiesta": 2831,
      "Ġkarpinte": 2832,
      "Ġkushe": 2833,
      "Ġevangeli": 2834,
      "ĠchedkÃ¼y": 2835,
      "Ġobliga": 2836,
      "Ġhectarea": 2837,
      "ĠColoColo": 2838,
      "cro": 2839,
      "day": 2840,
      "foro": 2841,
      "imi": 2842,
      "ielu": 2843,
      "ntÃ¼": 2844,
      "rre": 2845,
      "uela": 2846,
      "yew": 2847,
      "Ãĳ": 2848,
      "ÃŃ": 2849,
      "ĠW": 2850,
      "ĠÃĳ": 2851,
      "ngeel": 2852,
      "Ġlche": 2853,
      "tulu": 2854,
      "tufin": 2855,
      "fuel": 2856,
      "keenew": 2857,
      "kefiiÃ±": 2858,
      "keeyÃ±mew": 2859,
      "Ġafi": 2860,
      "Ġatunge": 2861,
      "lelay": 2862,
      "Ġyentuku": 2863,
      "Ġfundo": 2864,
      "Ġforo": 2865,
      "Ġpen": 2866,
      "Ġpeli": 2867,
      "Ġpela": 2868,
      "papen": 2869,
      "papelmi": 2870,
      "Ġpino": 2871,
      "Ġchaw": 2872,
      "Ġfeymew": 2873,
      "kÃ¼n": 2874,
      "Ġpun": 2875,
      "Ġkuram": 2876,
      "pulu": 2877,
      "Ġinge": 2878,
      "amen": 2879,
      "Ġtrill": 2880,
      "Ġyenge": 2881,
      "Ġpang": 2882,
      "Ġpangku": 2883,
      "muiÃ±": 2884,
      "Ã¼no": 2885,
      "afuel": 2886,
      "Ġfeychi": 2887,
      "ngekeiÃ±": 2888,
      "ngekelaiÃ±": 2889,
      "kÃ¼lelu": 2890,
      "Ġfemlay": 2891,
      "rkeyngÃ¼n": 2892,
      "mekelafuy": 2893,
      "laenew": 2894,
      "laeyew": 2895,
      "lafiel": 2896,
      "Ġelunie": 2897,
      "filimÃ¼n": 2898,
      "ĠnÃ¼tramkake": 2899,
      "ĠiÃ±che": 2900,
      "Ġmicro": 2901,
      "Ġpurama": 2902,
      "layan": 2903,
      "layaymi": 2904,
      "Ġyewentuku": 2905,
      "Ġfentren": 2906,
      "Ġinaw": 2907,
      "Ġinan": 2908,
      "Ġiney": 2909,
      "ĠkulliÃ±": 2910,
      "ĠweÃ±enge": 2911,
      "ĠpÃ¼le": 2912,
      "Ġwentelaf": 2913,
      "Ġkoipo": 2914,
      "Ġchofu": 2915,
      "afuyngÃ¼n": 2916,
      "pelu": 2917,
      "kelafuiÃ±": 2918,
      "ĠmÃ¼trÃ¼n": 2919,
      "wimi": 2920,
      "Ġfolil": 2921,
      "Ġestudiay": 2922,
      "Ġestudian": 2923,
      "Ġsantiago": 2924,
      "Ġtam": 2925,
      "aetew": 2926,
      "aeymew": 2927,
      "Ġayetukela": 2928,
      "ĠanÃ¼mka": 2929,
      "Ġdios": 2930,
      "afimi": 2931,
      "afilu": 2932,
      "undo": 2933,
      "ngelayaymi": 2934,
      "ngelayngÃ¼n": 2935,
      "Ġcomo": 2936,
      "Ġescuela": 2937,
      "Ġpewmangen": 2938,
      "Ġtukulkaw": 2939,
      "Ġarrendan": 2940,
      "pelayan": 2941,
      "keetew": 2942,
      "elafin": 2943,
      "ĠFo": 2944,
      "ngelmÃ¼n": 2945,
      "Ġwula": 2946,
      "Ġrakidua": 2947,
      "ĠPi": 2948,
      "Ġkimpapel": 2949,
      "Ġuniversidad": 2950,
      "Ġestado": 2951,
      "Ġargentina": 2952,
      "Ġplanta": 2953,
      "ĠkÃ¼tral": 2954,
      "Ġkimchef": 2955,
      "Ġkoral": 2956,
      "AP": 2957,
      "DAP": 2958,
      "Jo": 2959,
      "NDAP": 2960,
      "Oma": 2961,
      "Qu": 2962,
      "Zu": 2963,
      "aa": 2964,
      "aku": 2965,
      "angu": 2966,
      "ara": 2967,
      "ako": 2968,
      "aco": 2969,
      "aqu": 2970,
      "aÃ±o": 2971,
      "be": 2972,
      "bel": 2973,
      "bra": 2974,
      "bla": 2975,
      "bol": 2976,
      "bier": 2977,
      "brino": 2978,
      "brero": 2979,
      "cle": 2980,
      "cen": 2981,
      "cel": 2982,
      "cto": 2983,
      "cre": 2984,
      "ctica": 2985,
      "don": 2986,
      "drea": 2987,
      "eg": 2988,
      "em": 2989,
      "era": 2990,
      "eru": 2991,
      "eta": 2992,
      "eda": 2993,
      "eti": 2994,
      "eca": 2995,
      "ector": 2996,
      "eza": 2997,
      "etro": 2998,
      "epan": 2999,
      "eba": 3000,
      "erea": 3001,
      "etren": 3002,
      "eum": 3003,
      "ehual": 3004,
      "fill": 3005,
      "fon": 3006,
      "fali": 3007,
      "fenew": 3008,
      "fanti": 3009,
      "go": 3010,
      "glo": 3011,
      "gan": 3012,
      "gko": 3013,
      "gre": 3014,
      "gÃ¼ne": 3015,
      "gion": 3016,
      "grado": 3017,
      "ip": 3018,
      "ir": 3019,
      "is": 3020,
      "inge": 3021,
      "itu": 3022,
      "iku": 3023,
      "ipu": 3024,
      "ina": 3025,
      "ici": 3026,
      "ista": 3027,
      "igu": 3028,
      "isto": 3029,
      "ique": 3030,
      "ille": 3031,
      "jor": 3032,
      "jun": 3033,
      "ky": 3034,
      "klo": 3035,
      "ktor": 3036,
      "lche": 3037,
      "lko": 3038,
      "lda": 3039,
      "llen": 3040,
      "lfiy": 3041,
      "mpa": 3042,
      "mpe": 3043,
      "mor": 3044,
      "nda": 3045,
      "nde": 3046,
      "nca": 3047,
      "nco": 3048,
      "nillo": 3049,
      "oj": 3050,
      "ole": 3051,
      "oli": 3052,
      "opa": 3053,
      "ori": 3054,
      "oko": 3055,
      "orume": 3056,
      "okiÃ±": 3057,
      "oÃ±o": 3058,
      "oÃ±i": 3059,
      "ocina": 3060,
      "ptu": 3061,
      "pÃ¼l": 3062,
      "pÃ¼tra": 3063,
      "por": 3064,
      "plan": 3065,
      "rr": 3066,
      "rew": 3067,
      "rki": 3068,
      "rÃ¼m": 3069,
      "rna": 3070,
      "rto": 3071,
      "rwa": 3072,
      "rde": 3073,
      "rdo": 3074,
      "rne": 3075,
      "rca": 3076,
      "relmi": 3077,
      "rmo": 3078,
      "ronc": 3079,
      "rzu": 3080,
      "rona": 3081,
      "rsidad": 3082,
      "rcul": 3083,
      "sel": 3084,
      "spi": 3085,
      "sco": 3086,
      "smo": 3087,
      "stilla": 3088,
      "tÃ¼m": 3089,
      "tonc": 3090,
      "toni": 3091,
      "uen": 3092,
      "uma": 3093,
      "uko": 3094,
      "uto": 3095,
      "ula": 3096,
      "uali": 3097,
      "upay": 3098,
      "uÃ±o": 3099,
      "urako": 3100,
      "usti": 3101,
      "ucho": 3102,
      "uille": 3103,
      "ven": 3104,
      "vro": 3105,
      "vin": 3106,
      "vion": 3107,
      "villo": 3108,
      "voro": 3109,
      "wÃ¼": 3110,
      "wla": 3111,
      "wfÃ¼": 3112,
      "wkefuyngÃ¼n": 3113,
      "xto": 3114,
      "yÃ±mew": 3115,
      "zi": 3116,
      "zku": 3117,
      "zon": 3118,
      "©s": 3119,
      "Ã©s": 3120,
      "ĠÃ¼tra": 3121,
      "Ġor": 3122,
      "Ġoro": 3123,
      "Ġque": 3124,
      "ĠJo": 3125,
      "ĠOma": 3126,
      "ĠQu": 3127,
      "ĠZu": 3128,
      "ngkÃ¼l": 3129,
      "ngles": 3130,
      "ngako": 3131,
      "Ã¼mi": 3132,
      "Ã¼gko": 3133,
      "ngelaiÃ±": 3134,
      "Ġlam": 3135,
      "ĠlÃ¼gko": 3136,
      "tuto": 3137,
      "tufun": 3138,
      "tukelay": 3139,
      "tulan": 3140,
      "tukeyngÃ¼n": 3141,
      "Ġpra": 3142,
      "Ġpru": 3143,
      "ĠpÃ¼no": 3144,
      "fur": 3145,
      "futu": 3146,
      "fueyÃ±mew": 3147,
      "fueymew": 3148,
      "kem": 3149,
      "Ġange": 3150,
      "Ġale": 3151,
      "Ġache": 3152,
      "Ġala": 3153,
      "Ġasa": 3154,
      "Ġaro": 3155,
      "Ġasu": 3156,
      "Ġasi": 3157,
      "Ġaun": 3158,
      "ĠaÃ±i": 3159,
      "Ġabu": 3160,
      "Ġarao": 3161,
      "Ġaaa": 3162,
      "Ġauto": 3163,
      "Ġavion": 3164,
      "let": 3165,
      "leki": 3166,
      "leno": 3167,
      "lefuiÃ±": 3168,
      "legio": 3169,
      "lelafiel": 3170,
      "Ġngedu": 3171,
      "Ġngewe": 3172,
      "Ġngewelay": 3173,
      "Ġkepi": 3174,
      "Ġkeno": 3175,
      "Ġnan": 3176,
      "ĠniÃ±o": 3177,
      "Ġnorte": 3178,
      "Ã±Ã¼": 3179,
      "Ã±Ã¼m": 3180,
      "Ġyentu": 3181,
      "Ġyam": 3182,
      "Ġyiw": 3183,
      "ĠyÃ¼ll": 3184,
      "Ġyanqui": 3185,
      "tron": 3186,
      "tror": 3187,
      "trique": 3188,
      "ĠmiÃ±": 3189,
      "Ġmon": 3190,
      "lia": 3191,
      "liiÃ±": 3192,
      "lita": 3193,
      "liti": 3194,
      "lido": 3195,
      "lico": 3196,
      "liwen": 3197,
      "ĠwiÃ±": 3198,
      "Ġwaw": 3199,
      "Ġwan": 3200,
      "Ġley": 3201,
      "Ġletra": 3202,
      "Ġleon": 3203,
      "ĠlewfÃ¼": 3204,
      "misa": 3205,
      "mingÃ¼n": 3206,
      "mino": 3207,
      "mingo": 3208,
      "milia": 3209,
      "chilla": 3210,
      "chelmi": 3211,
      "chona": 3212,
      "Ġfaw": 3213,
      "Ġfon": 3214,
      "ĠfÃ¼n": 3215,
      "Ġfay": 3216,
      "Ġfru": 3217,
      "Ġfor": 3218,
      "Ġpel": 3219,
      "Ġpetu": 3220,
      "ĠpeÃ±ma": 3221,
      "Ġpero": 3222,
      "Ġpeno": 3223,
      "Ġpekelafu": 3224,
      "Ġtulo": 3225,
      "Ġturpu": 3226,
      "Ġtumor": 3227,
      "kafiy": 3228,
      "kacion": 3229,
      "kanolu": 3230,
      "karwa": 3231,
      "ena": 3232,
      "entra": 3233,
      "enan": 3234,
      "enko": 3235,
      "ento": 3236,
      "endo": 3237,
      "Ġlig": 3238,
      "Ġlipa": 3239,
      "Ġliyu": 3240,
      "Ġliwen": 3241,
      "Ġlitro": 3242,
      "Ġlinte": 3243,
      "Ġlibro": 3244,
      "Ġlinco": 3245,
      "llÃ¼": 3246,
      "llka": 3247,
      "llku": 3248,
      "llcha": 3249,
      "llpun": 3250,
      "llfÃ¼n": 3251,
      "llkÃ¼ll": 3252,
      "llano": 3253,
      "ĠkÃ¼na": 3254,
      "ĠkÃ¼la": 3255,
      "ĠkÃ¼ni": 3256,
      "ĠkÃ¼yen": 3257,
      "ĠkÃ¼wÃ¼": 3258,
      "ĠkÃ¼llkÃ¼ll": 3259,
      "palu": 3260,
      "pafiy": 3261,
      "parao": 3262,
      "paÃ±ilwe": 3263,
      "pakeeyÃ±mew": 3264,
      "paip": 3265,
      "ellido": 3266,
      "mal": 3267,
      "mada": 3268,
      "mano": 3269,
      "matica": 3270,
      "maforo": 3271,
      "kun": 3272,
      "kuÃ±": 3273,
      "kefuel": 3274,
      "peye": 3275,
      "perme": 3276,
      "duami": 3277,
      "Ġreli": 3278,
      "Ġrep": 3279,
      "Ġrinc": 3280,
      "Ġrolli": 3281,
      "Ġriku": 3282,
      "Ġropa": 3283,
      "Ġpiy": 3284,
      "Ġpitu": 3285,
      "Ġpiam": 3286,
      "Ġpitru": 3287,
      "Ġpifuli": 3288,
      "Ġpilafuy": 3289,
      "ĠpichiÃ±": 3290,
      "Ġpikota": 3291,
      "Ġpinta": 3292,
      "Ġpital": 3293,
      "Ġpieza": 3294,
      "Ġpirona": 3295,
      "Ġpizku": 3296,
      "Ġpillka": 3297,
      "Ġkish": 3298,
      "Ġkichiw": 3299,
      "Ġchay": 3300,
      "Ġchanchu": 3301,
      "mera": 3302,
      "mefiiÃ±": 3303,
      "mefiÃ±": 3304,
      "traf": 3305,
      "iemp": 3306,
      "Ġferia": 3307,
      "Ġferre": 3308,
      "Ġfebrero": 3309,
      "Ġfewla": 3310,
      "kÃ¼lla": 3311,
      "Ġkam": 3312,
      "Ġkara": 3313,
      "Ġkacha": 3314,
      "Ġkalul": 3315,
      "Ġkampu": 3316,
      "Ġkazu": 3317,
      "Ġkazi": 3318,
      "Ġkatuto": 3319,
      "Ġkamisa": 3320,
      "Ġkachilla": 3321,
      "Ġpuel": 3322,
      "Ġputra": 3323,
      "Ġpuru": 3324,
      "Ġpuno": 3325,
      "Ġpueb": 3326,
      "Ġpuerta": 3327,
      "Ġpukem": 3328,
      "Ġpuliwen": 3329,
      "Ġpullku": 3330,
      "Ġkutu": 3331,
      "Ġkuku": 3332,
      "Ġkupu": 3333,
      "Ġkura": 3334,
      "Ġkudi": 3335,
      "Ġkulen": 3336,
      "Ġkuad": 3337,
      "Ġkurso": 3338,
      "Ġkurew": 3339,
      "puyu": 3340,
      "puer": 3341,
      "pumew": 3342,
      "puyngÃ¼n": 3343,
      "puela": 3344,
      "Ġkimpe": 3345,
      "Ġkimla": 3346,
      "Ġkimlay": 3347,
      "Ġkimken": 3348,
      "Ġkimkelafuy": 3349,
      "nguera": 3350,
      "ĠimÃ¼n": 3351,
      "Ġigu": 3352,
      "Ġiden": 3353,
      "Ġidio": 3354,
      "Ġigle": 3355,
      "Ġingles": 3356,
      "Ġichona": 3357,
      "entukÃ¼ley": 3358,
      "ntuhu": 3359,
      "Ġwechu": 3360,
      "Ġwerken": 3361,
      "Ġmas": 3362,
      "Ġmay": 3363,
      "Ġmama": 3364,
      "Ġmaki": 3365,
      "Ġmari": 3366,
      "Ġmala": 3367,
      "Ġmati": 3368,
      "Ġmalen": 3369,
      "Ġmalon": 3370,
      "Ġmamita": 3371,
      "Ġmalle": 3372,
      "Ġmadera": 3373,
      "Ġmaetro": 3374,
      "Ġmaipu": 3375,
      "Ġmaori": 3376,
      "Ġmarzu": 3377,
      "ĠmakuÃ±": 3378,
      "Ġmanguera": 3379,
      "ewa": 3380,
      "Ġniey": 3381,
      "Ġnieke": 3382,
      "Ġnieto": 3383,
      "Ġnieken": 3384,
      "Ġniefuy": 3385,
      "Ġwilli": 3386,
      "Ġwichu": 3387,
      "Ġwingku": 3388,
      "Ġwino": 3389,
      "Ġwiya": 3390,
      "ĠwingkÃ¼l": 3391,
      "nung": 3392,
      "nuel": 3393,
      "nuto": 3394,
      "Ġtren": 3395,
      "Ġtrewa": 3396,
      "Ġlale": 3397,
      "Ġlapi": 3398,
      "Ġlasu": 3399,
      "Ġlapelay": 3400,
      "Ġlava": 3401,
      "illon": 3402,
      "Ġmesa": 3403,
      "Ġmetaw": 3404,
      "Ġmetro": 3405,
      "Ġmejor": 3406,
      "onero": 3407,
      "oneum": 3408,
      "Ġyem": 3409,
      "Ġyeso": 3410,
      "Ġpapa": 3411,
      "Ġpari": 3412,
      "Ġpala": 3413,
      "Ġpare": 3414,
      "Ġpati": 3415,
      "Ġpapay": 3416,
      "ĠpaÃ±u": 3417,
      "Ġpasto": 3418,
      "ĠpaÃ±ilwe": 3419,
      "Ġpais": 3420,
      "Ġpakarwa": 3421,
      "Ã¼nawe": 3422,
      "Ġtukunge": 3423,
      "Ã±manie": 3424,
      "Ã±mafin": 3425,
      "ĠkÃ¼palele": 3426,
      "ĠkÃ¼payen": 3427,
      "ĠkÃ¼pace": 3428,
      "chiantÃ¼": 3429,
      "rada": 3430,
      "rangka": 3431,
      "rabi": 3432,
      "ramien": 3433,
      "razon": 3434,
      "ĠmÃ¼ta": 3435,
      "ĠmÃ¼te": 3436,
      "ĠmÃ¼ten": 3437,
      "ĠmÃ¼tay": 3438,
      "ĠmÃ¼llo": 3439,
      "ĠmÃ¼chay": 3440,
      "ĠmÃ¼ltr": 3441,
      "ĠmÃ¼day": 3442,
      "afulu": 3443,
      "afuyu": 3444,
      "pia": 3445,
      "pilu": 3446,
      "piri": 3447,
      "piente": 3448,
      "Ġele": 3449,
      "Ġeymi": 3450,
      "ĠeymÃ¼n": 3451,
      "Ġepu": 3452,
      "Ġengu": 3453,
      "Ġemu": 3454,
      "Ġera": 3455,
      "ĠengÃ¼n": 3456,
      "Ġeje": 3457,
      "ĠeÃ±u": 3458,
      "Ġedad": 3459,
      "Ġekota": 3460,
      "Ġeymu": 3461,
      "Ġego": 3462,
      "ayrki": 3463,
      "Ġrumel": 3464,
      "Ġrueda": 3465,
      "Ġchemu": 3466,
      "Ġchevro": 3467,
      "illan": 3468,
      "illalen": 3469,
      "Ġdel": 3470,
      "Ġdro": 3471,
      "luwi": 3472,
      "lufke": 3473,
      "luvi": 3474,
      "lor": 3475,
      "lori": 3476,
      "lola": 3477,
      "loria": 3478,
      "logi": 3479,
      "Ġdunguken": 3480,
      "Ġdungukelay": 3481,
      "Ġdunguwelay": 3482,
      "Ġtrafi": 3483,
      "Ġtrapel": 3484,
      "Ġtraktor": 3485,
      "Ġtrampa": 3486,
      "Ġtrauma": 3487,
      "ĠngillaÃ±": 3488,
      "ĠngillapaÃ±ilwe": 3489,
      "ando": 3490,
      "anco": 3491,
      "anza": 3492,
      "ancer": 3493,
      "anaco": 3494,
      "Ġuna": 3495,
      "Ġuno": 3496,
      "Ġuyew": 3497,
      "Ġentufe": 3498,
      "chet": 3499,
      "Ġkono": 3500,
      "Ġkonpun": 3501,
      "rupay": 3502,
      "rupape": 3503,
      "yawiÃ±": 3504,
      "taro": 3505,
      "talidad": 3506,
      "ngekefuel": 3507,
      "Ġfemnoli": 3508,
      "Ġchumi": 3509,
      "Ġchuchi": 3510,
      "Ġchuchu": 3511,
      "Ġchuwi": 3512,
      "Ġyangka": 3513,
      "Ġyangall": 3514,
      "Ġyagan": 3515,
      "ĠdewÃ¼": 3516,
      "rkeno": 3517,
      "nalwe": 3518,
      "nardo": 3519,
      "Ġluz": 3520,
      "Ġluna": 3521,
      "Ġchumkaw": 3522,
      "Ġchumngelu": 3523,
      "Ġchumten": 3524,
      "ĠchumÃ¼ll": 3525,
      "Ġdewmange": 3526,
      "Ġallfi": 3527,
      "rio": 3528,
      "rito": 3529,
      "rial": 3530,
      "ridad": 3531,
      "riba": 3532,
      "ringo": 3533,
      "kom": 3534,
      "kopiwe": 3535,
      "femi": 3536,
      "fersidad": 3537,
      "mekeiÃ±": 3538,
      "mekelay": 3539,
      "toco": 3540,
      "lafiy": 3541,
      "lacion": 3542,
      "lase": 3543,
      "larita": 3544,
      "alista": 3545,
      "aliptu": 3546,
      "alismo": 3547,
      "teria": 3548,
      "tellano": 3549,
      "reto": 3550,
      "resa": 3551,
      "rector": 3552,
      "reza": 3553,
      "remo": 3554,
      "resta": 3555,
      "recia": 3556,
      "rebro": 3557,
      "niero": 3558,
      "niefin": 3559,
      "ĠchemkÃ¼n": 3560,
      "Ġchemkun": 3561,
      "Ġadtuku": 3562,
      "ĠeluwÃ¼n": 3563,
      "Ġelungeno": 3564,
      "ĠngÃ¼tror": 3565,
      "ĠngÃ¼traf": 3566,
      "fitu": 3567,
      "filiÃ±": 3568,
      "finero": 3569,
      "fianza": 3570,
      "Ġfilu": 3571,
      "Ġfirma": 3572,
      "Ġfinde": 3573,
      "kunuenew": 3574,
      "waka": 3575,
      "Ġtripakey": 3576,
      "ĠtripantÃ¼": 3577,
      "ĠÃ±ar": 3578,
      "ĠÃ±awe": 3579,
      "ĠÃ±ayrki": 3580,
      "Ġngillatun": 3581,
      "ĠÃ¼lcha": 3582,
      "Ġwaria": 3583,
      "Ġwalle": 3584,
      "Ġwarangka": 3585,
      "ĠnÃ¼tramkale": 3586,
      "Ġkutranka": 3587,
      "ĠkutrankÃ¼le": 3588,
      "orba": 3589,
      "Ġakucha": 3590,
      "ĠallkÃ¼tule": 3591,
      "ĠallkÃ¼tuli": 3592,
      "ĠiÃ±chiÃ±": 3593,
      "ĠiÃ±chiw": 3594,
      "Ġnentulay": 3595,
      "der": 3596,
      "des": 3597,
      "dero": 3598,
      "Ġmisa": 3599,
      "Ġmisi": 3600,
      "Ġmingako": 3601,
      "Ġmilita": 3602,
      "Ġmientra": 3603,
      "Ġminuto": 3604,
      "Ġyawfutu": 3605,
      "Ġcar": 3606,
      "Ġciel": 3607,
      "Ġcorte": 3608,
      "Ġcancer": 3609,
      "Ġclase": 3610,
      "Ġcaliptu": 3611,
      "Ġcorba": 3612,
      "Ġnada": 3613,
      "Ġnaci": 3614,
      "Ġnapor": 3615,
      "Ġnanung": 3616,
      "Ġnatalidad": 3617,
      "alan": 3618,
      "aldi": 3619,
      "alva": 3620,
      "ĠngÃ¼nen": 3621,
      "ĠngÃ¼nentukÃ¼ley": 3622,
      "Ġmotor": 3623,
      "Ġmoltr": 3624,
      "Ġmolda": 3625,
      "ĠmollfÃ¼n": 3626,
      "alea": 3627,
      "Ġllalla": 3628,
      "din": 3629,
      "dine": 3630,
      "Ġwingkawi": 3631,
      "Ġwingkakechile": 3632,
      "samien": 3633,
      "sabel": 3634,
      "sario": 3635,
      "Ġilowaka": 3636,
      "Ġkintupe": 3637,
      "Ġmuni": 3638,
      "Ġmutay": 3639,
      "Ġmundo": 3640,
      "Ġmueb": 3641,
      "Ġmullpun": 3642,
      "Ġmiyawi": 3643,
      "Ġapellido": 3644,
      "Ġlof": 3645,
      "Ġlos": 3646,
      "Ġloko": 3647,
      "Ġloco": 3648,
      "Ġmapuchengen": 3649,
      "Ġmapuchengeli": 3650,
      "layafun": 3651,
      "layafuiÃ±": 3652,
      "Ġposo": 3653,
      "Ġposta": 3654,
      "Ġpozo": 3655,
      "ĠpoÃ±Ã¼": 3656,
      "Ġpoliti": 3657,
      "Ġpolola": 3658,
      "roz": 3659,
      "Ġrupayan": 3660,
      "wesha": 3661,
      "tito": 3662,
      "timo": 3663,
      "tidad": 3664,
      "ticia": 3665,
      "ticamente": 3666,
      "Ġadkintupe": 3667,
      "Ġfamngechi": 3668,
      "Ġinye": 3669,
      "Ġinayaw": 3670,
      "ĠinchiÃ±": 3671,
      "Ġinstru": 3672,
      "Ġinfanti": 3673,
      "Ġinven": 3674,
      "Ġinfitu": 3675,
      "Ġrag": 3676,
      "ĠrakiÃ±": 3677,
      "Ġradio": 3678,
      "Ġramada": 3679,
      "ĠadumÃ¼l": 3680,
      "Ġadumnie": 3681,
      "Ġtranaley": 3682,
      "Ġanka": 3683,
      "Ġanay": 3684,
      "dora": 3685,
      "doso": 3686,
      "dores": 3687,
      "Ġwedachew": 3688,
      "Ġnawputu": 3689,
      "ĠpÃ¼llÃ¼": 3690,
      "Ġafken": 3691,
      "asta": 3692,
      "rÃ¼ng": 3693,
      "Ġawtu": 3694,
      "Ġawkan": 3695,
      "Ġawkay": 3696,
      "Ġawela": 3697,
      "ĠtrawÃ¼lu": 3698,
      "Ġanungechi": 3699,
      "Ġtrafme": 3700,
      "Ġtrafkintu": 3701,
      "ĠÃ¼trÃ¼": 3702,
      "ĠÃ¼Ã±Ã¼m": 3703,
      "ĠÃ¼llcha": 3704,
      "ĠÃ¼kÃ¼lla": 3705,
      "kalen": 3706,
      "Ġwitranalwe": 3707,
      "Ġnota": 3708,
      "Ġnovillo": 3709,
      "Ġnoticia": 3710,
      "ngetukefuy": 3711,
      "Ġkochi": 3712,
      "Ġkofi": 3713,
      "Ġkofre": 3714,
      "Ġkollo": 3715,
      "Ġkose": 3716,
      "Ġkopiwe": 3717,
      "Ġkomuni": 3718,
      "Ġkoleki": 3719,
      "Ġinal": 3720,
      "ulhual": 3721,
      "Ġyufu": 3722,
      "Ġngollilche": 3723,
      "Ġentre": 3724,
      "Ġentonc": 3725,
      "Ġfalde": 3726,
      "ĠpurrÃ¼m": 3727,
      "Ġese": 3728,
      "Ġeste": 3729,
      "Ġespuela": 3730,
      "Ġespiri": 3731,
      "yefiiÃ±": 3732,
      "yecto": 3733,
      "ĠchokÃ¼m": 3734,
      "Ġofisa": 3735,
      "Ġorado": 3736,
      "sun": 3737,
      "sus": 3738,
      "Ġprogre": 3739,
      "Ġproyecto": 3740,
      "nes": 3741,
      "nemal": 3742,
      "Ġchang": 3743,
      "Ġchaku": 3744,
      "Ġchala": 3745,
      "Ġchadi": 3746,
      "Ġchacha": 3747,
      "Ġchalla": 3748,
      "Ġchallo": 3749,
      "Ġchachay": 3750,
      "Ġchacra": 3751,
      "Ġchangall": 3752,
      "ĠillkÃ¼tu": 3753,
      "Ġllena": 3754,
      "Ġllemay": 3755,
      "mento": 3756,
      "tukule": 3757,
      "pelafuy": 3758,
      "ĠdueÃ±": 3759,
      "ĠdumiÃ±": 3760,
      "Ġdudoso": 3761,
      "nologi": 3762,
      "nochet": 3763,
      "kelafuymi": 3764,
      "leyÃ±mew": 3765,
      "caza": 3766,
      "Ġhay": 3767,
      "Ġhier": 3768,
      "Ġhisto": 3769,
      "Ġhasta": 3770,
      "ĠkÃ¼lfÃ¼": 3771,
      "Ġtarea": 3772,
      "Ġtarro": 3773,
      "Ġtabla": 3774,
      "ĠtapÃ¼l": 3775,
      "Ġtarde": 3776,
      "Ġreloj": 3777,
      "Ġpiwkeli": 3778,
      "Ġarengen": 3779,
      "lenew": 3780,
      "erdo": 3781,
      "erpo": 3782,
      "erce": 3783,
      "ergio": 3784,
      "erpiente": 3785,
      "ernardo": 3786,
      "Ġbai": 3787,
      "Ġbiblia": 3788,
      "ĠbaÃ±o": 3789,
      "Ġbeca": 3790,
      "Ġbici": 3791,
      "Ġbocina": 3792,
      "Ġbronc": 3793,
      "Ġbanco": 3794,
      "wiyu": 3795,
      "Ġdoy": 3796,
      "Ġdoam": 3797,
      "Ġdomingo": 3798,
      "ĠnerÃ¼ng": 3799,
      "eÃ±a": 3800,
      "Ġfoye": 3801,
      "Ġfotilla": 3802,
      "Ġfoina": 3803,
      "ĠfotÃ¼m": 3804,
      "Ġfotoco": 3805,
      "Ġforesta": 3806,
      "ĠkÃ¼melkalepan": 3807,
      "sia": 3808,
      "siku": 3809,
      "Ġver": 3810,
      "Ġvaso": 3811,
      "Ġvaqu": 3812,
      "Ġvena": 3813,
      "Ġacci": 3814,
      "Ġacero": 3815,
      "Ġacuer": 3816,
      "Ġpepil": 3817,
      "ĠpepikÃ¼daw": 3818,
      "cos": 3819,
      "ĠmÃ¼trÃ¼mwe": 3820,
      "kiyawfimÃ¼n": 3821,
      "Ġfandera": 3822,
      "Ġperfo": 3823,
      "Ġperdon": 3824,
      "Ġpedir": 3825,
      "Ġcastilla": 3826,
      "Ġcasuali": 3827,
      "Ġcastellano": 3828,
      "Ġoperacion": 3829,
      "ngÃ¼mi": 3830,
      "ngÃ¼ll": 3831,
      "zao": 3832,
      "fuyngÃ¼n": 3833,
      "ĠmallokiÃ±": 3834,
      "kÃ¼lmÃ¼n": 3835,
      "galo": 3836,
      "Ġrungi": 3837,
      "Ġputun": 3838,
      "Ġputuken": 3839,
      "ĠayuwÃ¼n": 3840,
      "Ġsep": 3841,
      "Ġsol": 3842,
      "Ġsec": 3843,
      "Ġsiemp": 3844,
      "Ġserpiente": 3845,
      "Ġtampo": 3846,
      "Ġdoctorngen": 3847,
      "Ġsala": 3848,
      "Ġsaco": 3849,
      "Ġsabi": 3850,
      "Ġsaba": 3851,
      "Ġsagrado": 3852,
      "Ġlifru": 3853,
      "Ġmateria": 3854,
      "Ġmatematica": 3855,
      "nice": 3856,
      "nicamente": 3857,
      "cio": 3858,
      "ciku": 3859,
      "cian": 3860,
      "cino": 3861,
      "cialista": 3862,
      "Ġkawe": 3863,
      "Ġkawitu": 3864,
      "Ġporque": 3865,
      "Ġintercul": 3866,
      "ĠmÃ¼na": 3867,
      "Ġgente": 3868,
      "Ġgringo": 3869,
      "ĠlelfÃ¼n": 3870,
      "Ġvilu": 3871,
      "Ġvitro": 3872,
      "mocra": 3873,
      "Ġchileno": 3874,
      "ĠkutrankawkÃ¼le": 3875,
      "ĠCeli": 3876,
      "ĠColli": 3877,
      "ĠCoÃ±o": 3878,
      "ĠClori": 3879,
      "ĠClarita": 3880,
      "Ġprima": 3881,
      "Ġnewe": 3882,
      "ĠtrokiÃ±": 3883,
      "Ġpipiy": 3884,
      "Ġaraw": 3885,
      "Ġarca": 3886,
      "Ġarbol": 3887,
      "Ġarriba": 3888,
      "Ġarroz": 3889,
      "Ġketray": 3890,
      "Ġfantepumew": 3891,
      "Ġneyen": 3892,
      "Ġhuerta": 3893,
      "ĠfaÃ±u": 3894,
      "Ġfarma": 3895,
      "Ġfamilia": 3896,
      "ĠfachiantÃ¼": 3897,
      "pafiÃ±": 3898,
      "ĠngÃ¼lamtu": 3899,
      "ĠngÃ¼lale": 3900,
      "ĠngÃ¼lamu": 3901,
      "Ġayetukelay": 3902,
      "quin": 3903,
      "elita": 3904,
      "invoro": 3905,
      "intrique": 3906,
      "ilef": 3907,
      "ileo": 3908,
      "welaymi": 3909,
      "welaiÃ±": 3910,
      "Ġprivado": 3911,
      "Ġtrayay": 3912,
      "Ġtrayenko": 3913,
      "ĠChi": 3914,
      "ĠChew": 3915,
      "ĠChol": 3916,
      "ĠChum": 3917,
      "ĠChillan": 3918,
      "arra": 3919,
      "ardin": 3920,
      "Ġpreso": 3921,
      "Ġpreparao": 3922,
      "Ġpoblacion": 3923,
      "ĠwenÃ¼yka": 3924,
      "Ġkancha": 3925,
      "Ġdisco": 3926,
      "Ġdiluvi": 3927,
      "Ġdirector": 3928,
      "Ġmandan": 3929,
      "Ġmansan": 3930,
      "Ġmansun": 3931,
      "Ġcerebro": 3932,
      "Ġhola": 3933,
      "Ġhongo": 3934,
      "Ġhoja": 3935,
      "Ġhospi": 3936,
      "angileo": 3937,
      "lanca": 3938,
      "lanquin": 3939,
      "Ġpresion": 3940,
      "afiymi": 3941,
      "afiyu": 3942,
      "ĠweÃ±che": 3943,
      "bien": 3944,
      "ĠToÃ±i": 3945,
      "Ġtrure": 3946,
      "Ġtruol": 3947,
      "Ġtrufur": 3948,
      "Ġcerco": 3949,
      "Ġkolkopiwe": 3950,
      "Ġchomba": 3951,
      "Ġfoldo": 3952,
      "Ġfolklo": 3953,
      "ĠMetren": 3954,
      "ĠMigu": 3955,
      "ĠMillalen": 3956,
      "ĠMerce": 3957,
      "kelafin": 3958,
      "kelafiy": 3959,
      "kelaafimÃ¼n": 3960,
      "Ġpilun": 3961,
      "Ġcosa": 3962,
      "Ġcocina": 3963,
      "Ġcoji": 3964,
      "Ġcomuni": 3965,
      "Ġcostilla": 3966,
      "Ġcolegio": 3967,
      "Ġcomino": 3968,
      "Ġcorazon": 3969,
      "Ġcolor": 3970,
      "Ġdatu": 3971,
      "Ġdallu": 3972,
      "Ġmismo": 3973,
      "ĠceÃ±ir": 3974,
      "ĠangkÃ¼mwesha": 3975,
      "Ġcemento": 3976,
      "ĠTeresa": 3977,
      "Ġreke": 3978,
      "ĠreÃ±ma": 3979,
      "Ġrecu": 3980,
      "Ġregla": 3981,
      "Ġreja": 3982,
      "Ġregle": 3983,
      "Ġrecre": 3984,
      "Ġregalo": 3985,
      "Ġexamen": 3986,
      "Ġcalle": 3987,
      "Ġllamada": 3988,
      "ĠweÃ±eÃ±mangepe": 3989,
      "Ġenero": 3990,
      "Ġtranquilo": 3991,
      "ĠngÃ¼lamka": 3992,
      "Ġescritura": 3993,
      "pelayay": 3994,
      "pelayngÃ¼n": 3995,
      "welayan": 3996,
      "ĠAna": 3997,
      "ĠAgu": 3998,
      "ĠAbu": 3999,
      "ĠAerea": 4000,
      "ĠAllen": 4001,
      "Ġtemp": 4002,
      "Ġtesti": 4003,
      "Ã±iuko": 4004,
      "Ġtunten": 4005,
      "Ġopin": 4006,
      "agu": 4007,
      "ĠFuer": 4008,
      "ĠFeÃ±a": 4009,
      "Ġcarabi": 4010,
      "Ġcasamien": 4011,
      "cura": 4012,
      "culo": 4013,
      "Ġkimelele": 4014,
      "bacion": 4015,
      "semana": 4016,
      "vid": 4017,
      "Ġdecia": 4018,
      "ĠdengÃ¼ll": 4019,
      "Ġdecian": 4020,
      "Ġdemocra": 4021,
      "Ġtrapial": 4022,
      "Ġchumkanorume": 4023,
      "Ġchumkaorume": 4024,
      "Ġcura": 4025,
      "Ġcurso": 4026,
      "Ġcuento": 4027,
      "Ġcuando": 4028,
      "Ġcuerpo": 4029,
      "Ġkoyam": 4030,
      "ĠSeg": 4031,
      "ĠStron": 4032,
      "ĠSergio": 4033,
      "ĠSinvoro": 4034,
      "Ġwule": 4035,
      "tillanca": 4036,
      "ĠalÃ¼n": 4037,
      "Ġalfisa": 4038,
      "Ġalfa": 4039,
      "Ġconden": 4040,
      "Ġconstru": 4041,
      "Ġconjun": 4042,
      "Ġconfianza": 4043,
      "ciado": 4044,
      "ĠMaria": 4045,
      "ĠMacul": 4046,
      "ĠManuel": 4047,
      "ĠMaÃ±iuko": 4048,
      "Ġeducacion": 4049,
      "Ġprivatizao": 4050,
      "Ġkoylatuy": 4051,
      "cero": 4052,
      "ĠNec": 4053,
      "ĠNehual": 4054,
      "ĠNgÃ¼ne": 4055,
      "ĠPelan": 4056,
      "ĠPai": 4057,
      "ĠPangu": 4058,
      "ĠPeru": 4059,
      "Ġtiye": 4060,
      "Ġtinta": 4061,
      "osendo": 4062,
      "ĠBiblia": 4063,
      "ĠBeti": 4064,
      "ĠBoli": 4065,
      "ĠBernardo": 4066,
      "ĠBlanca": 4067,
      "ĠGuille": 4068,
      "ĠGloria": 4069,
      "ĠGrecia": 4070,
      "ĠGalva": 4071,
      "ĠGarra": 4072,
      "ĠLulu": 4073,
      "ĠLucho": 4074,
      "ĠLlufke": 4075,
      "ĠLlanquin": 4076,
      "Ġponsiku": 4077,
      "Ġepeko": 4078,
      "ĠnuwkÃ¼le": 4079,
      "ĠÃ±ami": 4080,
      "huciado": 4081,
      "ĠErne": 4082,
      "ĠINDAP": 4083,
      "ĠImpe": 4084,
      "ĠIsabel": 4085,
      "ĠRanqui": 4086,
      "ĠRupay": 4087,
      "ĠRangileo": 4088,
      "ĠRosendo": 4089,
      "ĠkorÃ¼": 4090,
      "Ġkorko": 4091,
      "Ġkorona": 4092,
      "Ġkordero": 4093,
      "Ġbus": 4094,
      "Ġbura": 4095,
      "Ġburito": 4096,
      "Ġbudine": 4097,
      "Ġvez": 4098,
      "Ġvecina": 4099,
      "Ġverano": 4100,
      "Ġvecino": 4101,
      "Ġgusto": 4102,
      "Ġguara": 4103,
      "Ġguanaco": 4104,
      "Ġguagu": 4105,
      "ĠAndrea": 4106,
      "ĠAnsel": 4107,
      "ĠAntoni": 4108,
      "ĠAntillanca": 4109,
      "Ġterno": 4110,
      "Ġtercer": 4111,
      "Ġterremo": 4112,
      "Ġtercero": 4113,
      "cular": 4114,
      "ĠKurako": 4115,
      "ĠKÃ¼nawe": 4116,
      "feyÃ±mew": 4117,
      "mplo": 4118,
      "stina": 4119,
      "Ġjusti": 4120,
      "Ġjalea": 4121,
      "Ġjardin": 4122,
      "Ġsuperme": 4123,
      "Ġsino": 4124,
      "Ġsiglo": 4125,
      "Ġplata": 4126,
      "Ġplato": 4127,
      "Ġplaza": 4128,
      "Ġamta": 4129,
      "Ġamfe": 4130,
      "Ã±aÃ±": 4131,
      "Ġmenos": 4132,
      "Ġmeninge": 4133,
      "Ġmenoko": 4134,
      "ĠrÃ¼ngo": 4135,
      "Ġwekun": 4136,
      "Ġwekufu": 4137,
      "Ġparte": 4138,
      "Ġnovia": 4139,
      "Ġnovio": 4140,
      "Ġnovios": 4141,
      "Ġhermana": 4142,
      "Ġhermano": 4143,
      "Ġherramien": 4144,
      "Ġsemana": 4145,
      "Ġsexto": 4146,
      "Ġsemaforo": 4147,
      "Ġsoya": 4148,
      "Ġsobrino": 4149,
      "Ġsopaip": 4150,
      "Ġtrukur": 4151,
      "ĠFelix": 4152,
      "ĠFelipe": 4153,
      "ĠFelisario": 4154,
      "Ġzapato": 4155,
      "Ġzapallo": 4156,
      "Ġzapatito": 4157,
      "ĠkayÃ±e": 4158,
      "Ġkaykay": 4159,
      "Ġwimwi": 4160,
      "Ġlafken": 4161,
      "Ġunifersidad": 4162,
      "Ġestacion": 4163,
      "Ġargentino": 4164,
      "cipalidad": 4165,
      "jita": 4166,
      "rrollo": 4167,
      "telay": 4168,
      "ĠHector": 4169,
      "ĠHuen": 4170,
      "ĠVenan": 4171,
      "ĠValdi": 4172,
      "Ġtornillo": 4173,
      "Ġtorcaza": 4174,
      "Ġjefe": 4175,
      "Ġjesus": 4176,
      "turalidad": 4177,
      "Ġahi": 4178,
      "ĠahÃŃ": 4179,
      "Ġalimen": 4180,
      "Ġaliwen": 4181,
      "Ġagua": 4182,
      "Ġaguan": 4183,
      "Ġaeroplan": 4184,
      "Ġaeropuer": 4185,
      "Ġflor": 4186,
      "Ġflorero": 4187,
      "Ġrayen": 4188,
      "ĠkalÃ¼l": 4189,
      "Ġkareta": 4190,
      "Ġkaretilla": 4191,
      "Ġkarote": 4192,
      "Ġkaroti": 4193,
      "Ġitrofill": 4194,
      "Ġitrokom": 4195,
      "Ġmedia": 4196,
      "Ġmedico": 4197,
      "onia": 4198,
      "Ġpalmera": 4199,
      "Ġpastor": 4200,
      "Ġpastel": 4201,
      "Ġpataka": 4202,
      "ĠÃ±uke": 4203,
      "ĠÃ±ukentu": 4204,
      "Ġrangi": 4205,
      "ĠrangiÃ±": 4206,
      "ĠtrafkupÃ¼tra": 4207,
      "Ġespejo": 4208,
      "Ġespecialista": 4209,
      "Ġviejo": 4210,
      "Ġviejita": 4211,
      "Ġpermiso": 4212,
      "ĠsaÃ±we": 4213,
      "ĠsaÃ±chu": 4214,
      "Ġgoma": 4215,
      "Ġgobier": 4216,
      "Ġgranero": 4217,
      "Ġgrabacion": 4218,
      "Ġgansu": 4219,
      "Ġganzu": 4220,
      "Ġgolpe": 4221,
      "Ġchicharr": 4222,
      "Ġcebolla": 4223,
      "ĠMarcel": 4224,
      "ĠMarcos": 4225,
      "Ġcolonialismo": 4226,
      "Ġcolonizao": 4227,
      "Ġdespues": 4228,
      "ĠdespuÃ©s": 4229,
      "Ġtecnologi": 4230,
      "Ġtecnicamente": 4231,
      "Ġtelefon": 4232,
      "Ġcatolica": 4233,
      "Ġcatolico": 4234,
      "Ġcazadores": 4235,
      "Ġcamioneta": 4236,
      "Ġdesahuciado": 4237,
      "Ġdesarrollo": 4238,
      "Ġcuchillo": 4239,
      "Ġcuchillon": 4240,
      "ĠSanta": 4241,
      "Ġalmacen": 4242,
      "ĠMarin": 4243,
      "ĠMariano": 4244,
      "Ġponwitu": 4245,
      "ĠÃ±aÃ±aÃ±aÃ±": 4246,
      "ĠElisa": 4247,
      "ĠElias": 4248,
      "Ġempez": 4249,
      "Ġempeza": 4250,
      "Ġsubsidi": 4251,
      "Ġsubsidio": 4252,
      "Ġparticipa": 4253,
      "Ġparticular": 4254,
      "ĠDavin": 4255,
      "ĠDavid": 4256,
      "Ġkarpintero": 4257,
      "Ġkarpinteria": 4258,
      "Ġevangelio": 4259,
      "Ġevangeliko": 4260,
      "Ġobligado": 4261,
      "Ġobligacion": 4262,
      "ĠWen": 4263,
      "ĠÃĳuÃ±o": 4264,
      "Ġafirma": 4265,
      "Ġpenka": 4266,
      "Ġpelicula": 4267,
      "Ġpelaa": 4268,
      "Ġingeniero": 4269,
      "Ġtrilltran": 4270,
      "ĠpangkÃ¼ll": 4271,
      "Ġestudiante": 4272,
      "Ġtambien": 4273,
      "ĠFotr": 4274,
      "ĠPinochet": 4275,
      "akucha": 4276,
      "beto": 4277,
      "cleta": 4278,
      "rcado": 4279,
      "ulaf": 4280,
      "ĠÃ¼trar": 4281,
      "Ġorkon": 4282,
      "ĠJose": 4283,
      "ĠOmar": 4284,
      "ĠQuintrique": 4285,
      "ĠZurita": 4286,
      "Ġlamngen": 4287,
      "ĠlÃ¼gkoyan": 4288,
      "Ġpractica": 4289,
      "Ġprueba": 4290,
      "Ġaleko": 4291,
      "Ġalasan": 4292,
      "Ġasado": 4293,
      "Ġarol": 4294,
      "Ġasucura": 4295,
      "Ġaunque": 4296,
      "ĠaÃ±il": 4297,
      "Ġabuelita": 4298,
      "Ġautoridad": 4299,
      "Ġkepito": 4300,
      "ĠyiwiÃ±": 4301,
      "ĠyÃ¼llÃ¼y": 4302,
      "ĠmiÃ±che": 4303,
      "Ġmonja": 4304,
      "Ġwawlu": 4305,
      "Ġfonciku": 4306,
      "Ġfaytun": 4307,
      "Ġfrutilla": 4308,
      "Ġforma": 4309,
      "Ġtulong": 4310,
      "Ġlipang": 4311,
      "Ġlinterna": 4312,
      "Ġlincoyan": 4313,
      "peyem": 4314,
      "Ġreligion": 4315,
      "Ġrepente": 4316,
      "Ġrincon": 4317,
      "Ġrollizo": 4318,
      "Ġpitrun": 4319,
      "Ġkishu": 4320,
      "Ġchayi": 4321,
      "Ġferreteria": 4322,
      "Ġkarafinero": 4323,
      "Ġkazuela": 4324,
      "Ġpurum": 4325,
      "Ġpueblo": 4326,
      "Ġkupulwe": 4327,
      "Ġkuadra": 4328,
      "Ġkurewen": 4329,
      "Ġigual": 4330,
      "Ġidentidad": 4331,
      "Ġidioma": 4332,
      "Ġiglesia": 4333,
      "ntuhue": 4334,
      "Ġmakina": 4335,
      "Ġmalal": 4336,
      "Ġmatita": 4337,
      "Ġwichulko": 4338,
      "Ġwingkul": 4339,
      "Ġwinol": 4340,
      "Ġlapiz": 4341,
      "Ġlavadora": 4342,
      "Ġmetawe": 4343,
      "oneumonia": 4344,
      "Ġpariente": 4345,
      "Ġpalabra": 4346,
      "Ġparece": 4347,
      "Ġpatio": 4348,
      "Ġpastores": 4349,
      "ĠkÃ¼pacereza": 4350,
      "ĠmÃ¼llokiÃ±": 4351,
      "ĠmÃ¼ltrÃ¼n": 4352,
      "Ġejemplo": 4353,
      "Ġegoista": 4354,
      "Ġchevrolet": 4355,
      "Ġdroga": 4356,
      "Ġtrafia": 4357,
      "Ġtrapelakucha": 4358,
      "Ġyangkall": 4359,
      "Ġchumkawnorume": 4360,
      "Ġfindesemana": 4361,
      "ĠÃ±arky": 4362,
      "Ġmisionero": 4363,
      "Ġmilitar": 4364,
      "Ġmientras": 4365,
      "Ġcarnice": 4366,
      "Ġcielo": 4367,
      "Ġcorbata": 4368,
      "Ġmoltron": 4369,
      "Ġmoldaje": 4370,
      "Ġmunicipalidad": 4371,
      "Ġmutayke": 4372,
      "Ġmueble": 4373,
      "Ġposoko": 4374,
      "Ġpolitico": 4375,
      "Ġinyeccion": 4376,
      "Ġinstrumento": 4377,
      "Ġinfantil": 4378,
      "Ġkollong": 4379,
      "Ġkosecha": 4380,
      "Ġkomunikacion": 4381,
      "Ġkolekio": 4382,
      "Ġentonces": 4383,
      "Ġespiritu": 4384,
      "Ġoradores": 4385,
      "Ġprogreso": 4386,
      "Ġchallof": 4387,
      "ĠdueÃ±o": 4388,
      "Ġhierba": 4389,
      "Ġhistoria": 4390,
      "Ġbaila": 4391,
      "Ġbicicleta": 4392,
      "Ġbronconeumonia": 4393,
      "Ġfotocopia": 4394,
      "Ġforestales": 4395,
      "Ġvaquilla": 4396,
      "Ġaccidente": 4397,
      "Ġacuerdo": 4398,
      "Ġperforada": 4399,
      "Ġcasualidad": 4400,
      "Ġseptimo": 4401,
      "Ġsolamente": 4402,
      "Ġsecreto": 4403,
      "Ġsiempre": 4404,
      "Ġtampoco": 4405,
      "Ġsabio": 4406,
      "Ġsabado": 4407,
      "Ġinterculturalidad": 4408,
      "Ġvitrola": 4409,
      "ĠCelinda": 4410,
      "ĠCollio": 4411,
      "ĠCoÃ±oepan": 4412,
      "ĠClorindo": 4413,
      "Ġfarmacia": 4414,
      "Ġdiluvio": 4415,
      "Ġmansana": 4416,
      "Ġhospital": 4417,
      "ĠToÃ±ito": 4418,
      "Ġfolklore": 4419,
      "ĠMetrenco": 4420,
      "ĠMiguel": 4421,
      "ĠMercedes": 4422,
      "Ġcojines": 4423,
      "Ġcomunidad": 4424,
      "ĠangkÃ¼mweshakelu": 4425,
      "Ġrecuerdo": 4426,
      "Ġrecreo": 4427,
      "ĠAgustina": 4428,
      "ĠAburto": 4429,
      "ĠAllende": 4430,
      "Ġtemprano": 4431,
      "Ġtesticulo": 4432,
      "ĠFuerza": 4433,
      "Ġcarabinero": 4434,
      "Ġcasamiento": 4435,
      "Ġdemocraticamente": 4436,
      "ĠSegundo": 4437,
      "ĠSinvoroso": 4438,
      "Ġalfabeto": 4439,
      "Ġcondena": 4440,
      "Ġconstruccion": 4441,
      "Ġconjunto": 4442,
      "ĠNeculhual": 4443,
      "ĠNehualwe": 4444,
      "ĠNgÃ¼nechen": 4445,
      "ĠPelantaro": 4446,
      "ĠPainemal": 4447,
      "ĠPanguilef": 4448,
      "ĠBolivia": 4449,
      "ĠGuillermo": 4450,
      "ĠGalvarino": 4451,
      "ĠLlufkentuhue": 4452,
      "ĠErnesto": 4453,
      "ĠImperial": 4454,
      "ĠRanquil": 4455,
      "Ġbudinera": 4456,
      "Ġguarani": 4457,
      "ĠAnselmo": 4458,
      "ĠAntonio": 4459,
      "Ġterremoto": 4460,
      "Ġjusticia": 4461,
      "Ġsupermercado": 4462,
      "Ġherramienta": 4463,
      "Ġsopaipilla": 4464,
      "ĠHuenulaf": 4465,
      "ĠVenancio": 4466,
      "ĠValdivia": 4467,
      "Ġaeroplano": 4468,
      "Ġaeropuerto": 4469,
      "Ġgobierno": 4470,
      "Ġchicharron": 4471,
      "ĠMarcelo": 4472,
      "Ġtecnologia": 4473,
      "Ġtelefono": 4474,
      "ĠDavincho": 4475,
      "ĠÃĳuÃ±oa": 4476,
      "ĠQuintriqueo": 4477,
      "Ġcarniceria": 4478
    },
    "merges": [
      "č Ċ",
      "n g",
      "Ã ¼",
      "Ġ k",
      "ng e",
      "Ġ l",
      "y m",
      "t u",
      "Ġ p",
      "f u",
      "k e",
      "Ġ a",
      "ym Ã¼",
      "l e",
      "Ġ nge",
      "Ġk e",
      "Ġ n",
      "Ã ±",
      "Ġ y",
      "t r",
      "Ġ m",
      "l i",
      "Ġ w",
      "Ġ fu",
      "Ġl e",
      "m i",
      "c h",
      "ym i",
      "ymÃ¼ n",
      "Ġ f",
      "Ġp e",
      "Ġ tu",
      "k a",
      "e n",
      "Ġl i",
      "i Ã±",
      "l l",
      "Ġk Ã¼",
      "p a",
      "e l",
      "m a",
      "k u",
      "ke fu",
      "a w",
      "p e",
      "d u",
      "Ġ r",
      "Ġp i",
      "Ġk i",
      "Ġ ch",
      "Ġ ng",
      "Ġ ymi",
      "Ġ ymÃ¼n",
      "Ġ ymÃ¼",
      "Ġl mi",
      "m e",
      "tr a",
      "i e",
      "Ġf e",
      "k Ã¼",
      "y iÃ±",
      "l mi",
      "Ġk a",
      "Ġp u",
      "Ġk u",
      "p u",
      "Ġki m",
      "ng u",
      "du ngu",
      "Ġ i",
      "en tu",
      "n tu",
      "Ġw e",
      "a m",
      "Ġm a",
      "e w",
      "Ġn ie",
      "Ġw i",
      "n u",
      "Ġ tr",
      "Ġ el",
      "Ġl a",
      "i ll",
      "Ġm e",
      "o n",
      "tr u",
      "Ġy e",
      "Ġp a",
      "m u",
      "Ã¼ n",
      "Ġtu ku",
      "Ã± ma",
      "ĠkÃ¼ pa",
      "li yiÃ±",
      "Ġli yiÃ±",
      "ch i",
      "r a",
      "Ġm Ã¼",
      "a fu",
      "p i",
      "Ġ e",
      "a y",
      "Ġfe y",
      "Ġr u",
      "Ġch e",
      "Ġa y",
      "ill a",
      "nge ke",
      "Ġ d",
      "l u",
      "l o",
      "Ġ dungu",
      "kÃ¼ le",
      "Ġ tra",
      "Ġma pu",
      "ĠkÃ¼ le",
      "Ġng illa",
      "a n",
      "ĠmÃ¼ le",
      "Ġ u",
      "Ġ entu",
      "ch e",
      "Ġa mu",
      "k i",
      "Ġk on",
      "r u",
      "y aw",
      "t a",
      "d aw",
      "Ã¼ m",
      "Ġme ke",
      "Ã¼ l",
      "Ġr ke",
      "nge kefu",
      "Ġfe m",
      "ĠkÃ¼ daw",
      "Ġch u",
      "Ġy a",
      "Ġd ew",
      "r ke",
      "n a",
      "Ġl u",
      "Ġchu m",
      "l li",
      "Ġdew ma",
      "Ġa ll",
      "r i",
      "Ġkim el",
      "k o",
      "d a",
      "f e",
      "Ġka tru",
      "me ke",
      "t o",
      "Ġ Ã±ma",
      "l a",
      "a li",
      "t e",
      "r e",
      "i pa",
      "n ie",
      "Ġche m",
      "Ġa d",
      "tra n",
      "ng ka",
      "ll u",
      "Ġel u",
      "Ġmapu dungu",
      "Ġng Ã¼",
      "Ġng o",
      "Ã¼ tra",
      "nge a",
      "Ġl li",
      "Ġtr e",
      "f i",
      "Ġf i",
      "ku nu",
      "Ġku nu",
      "w a",
      "Ġtr ipa",
      "Ġ Ã±",
      "Ġngilla tu",
      "Ġ Ã¼l",
      "Ġn Ã¼tra",
      "ĠnÃ¼tra m",
      "Ġw a",
      "ĠnÃ¼tram ka",
      "Ġku tran",
      "Ġay i",
      "ka tu",
      "o r",
      "Ġa ku",
      "Ġall kÃ¼",
      "Ġ iÃ±",
      "Ġn entu",
      "am tu",
      "d e",
      "Ġm i",
      "Ġke llu",
      "ka ntu",
      "Ġy aw",
      "ĠkÃ¼ me",
      "Ġpu w",
      "Ġ c",
      "y u",
      "Ġn a",
      "a l",
      "a nge",
      "Ġng Ã¼n",
      "Ġlli ka",
      "Ġay e",
      "Ġpu ra",
      "Ġm o",
      "ng Ã¼m",
      "Ġru me",
      "Ġfey pi",
      "Ġa du",
      "a le",
      "Ġke wa",
      "Ġl la",
      "d i",
      "Ġpi chi",
      "Ġwi ngka",
      "Ã± e",
      "s a",
      "ke le",
      "Ġr amtu",
      "Ġi ll",
      "Ġu tru",
      "ki ntu",
      "a ymi",
      "Ġn u",
      "Ġi lo",
      "Ġki ntu",
      "nge le",
      "ke y",
      "Ġm u",
      "Ġlla d",
      "aw Ã¼",
      "Ġfe le",
      "Ġmi yaw",
      "du am",
      "Ġna g",
      "Ġa p",
      "a ymÃ¼n",
      "Ġl o",
      "ru me",
      "Ġmapu che",
      "Ġtre m",
      "a ymÃ¼",
      "a pe",
      "a lmi",
      "l ay",
      "Ġp o",
      "ĠngÃ¼ ma",
      "ĠÃ¼l kantu",
      "nge n",
      "Ġy ew",
      "Ġngo ym",
      "Ġf en",
      "Ġch ill",
      "Ġwa ll",
      "r o",
      "iÃ± o",
      "Ġru pa",
      "Ġllad kÃ¼",
      "tu le",
      "Ġwi ri",
      "nge y",
      "w e",
      "Ġwingka dungu",
      "t i",
      "ke n",
      "Ġad kintu",
      "e y",
      "ng ko",
      "i w",
      "kefu y",
      "nge li",
      "nge ymi",
      "nge pe",
      "nge nge",
      "nge ymÃ¼",
      "nge ymÃ¼n",
      "nge lmi",
      "Ġw iÃ±o",
      "Ġf am",
      "u d",
      "ke li",
      "ke ymi",
      "ke ymÃ¼n",
      "Ġwi ra",
      "ke nge",
      "ke ymÃ¼",
      "ke pe",
      "ke lmi",
      "Ġi n",
      "u pi",
      "Ġr a",
      "ch u",
      "ng Ã¼n",
      "Ġadu m",
      "a el",
      "Ġtra na",
      "Ġa n",
      "Ġku y",
      "ch a",
      "Ġku lli",
      "kefu n",
      "kefu lmi",
      "d o",
      "kefu nge",
      "kefu ymÃ¼",
      "kefu le",
      "kefu li",
      "kefu ymi",
      "kefu ymÃ¼n",
      "kefu pe",
      "Ġpu to",
      "nge chi",
      "Ġputo ko",
      "Ġwe da",
      "Ġfey entu",
      "m el",
      "Ġn aw",
      "Ġwe Ã±e",
      "Ġp Ã¼",
      "Ġa f",
      "Ġchill katu",
      "Ġra ki",
      "a s",
      "Ġw en",
      "r Ã¼",
      "ma w",
      "Ġap o",
      "Ġlo ngko",
      "l pa",
      "Ġutru f",
      "Ġa w",
      "Ġnge n",
      "Ġtr awÃ¼",
      "Ġl aw",
      "Ġa nu",
      "pa y",
      "Ġtra f",
      "Ġngoym a",
      "Ġ Ã¼",
      "ka le",
      "Ġwi tra",
      "Ġn o",
      "ĠÃ± am",
      "nge tu",
      "Ġk o",
      "Ġi na",
      "u l",
      "Ġu maw",
      "Ġy u",
      "Ġwe upi",
      "Ġngo lli",
      "Ġ en",
      "Ġf al",
      "Ġpu r",
      "Ġk iÃ±",
      "Ġe s",
      "y e",
      "Ġch o",
      "Ġ o",
      "s u",
      "Ġp ro",
      "en ie",
      "Ġla ngÃ¼m",
      "Ġkuy da",
      "n e",
      "ĠkÃ¼ mel",
      "ntu ku",
      "mu n",
      "s h",
      "Ġpro fe",
      "Ġ ew",
      "ng ku",
      "Ġl lo",
      "Ġke chi",
      "Ġch a",
      "Ġprofe s",
      "ku tu",
      "Ġtra l",
      "Ġill kÃ¼",
      "Ġraki duam",
      "ĠkiÃ± e",
      "Ġl le",
      "m en",
      "ke rke",
      "afu y",
      "tu ku",
      "Ġa ng",
      "Ġf Ã¼",
      "p el",
      "Ġfen de",
      "Ġwall o",
      "Ġng u",
      "Ġmo nge",
      "e s",
      "k on",
      "l tru",
      "Ġw el",
      "Ġki su",
      "Ġ du",
      "Ġayi w",
      "n o",
      "ke l",
      "Ġpur ru",
      "Ġyew e",
      "am u",
      "Ġnu yu",
      "Ġy enie",
      "Ġa ma",
      "le y",
      "ĠkÃ¼pa l",
      "c a",
      "ka n",
      "r ku",
      "Ġ h",
      "Ġy afu",
      "ĠkÃ¼ l",
      "Ġdu lli",
      "Ġama tu",
      "Ġ ta",
      "Ġwira r",
      "ke chi",
      "le le",
      "Ġr el",
      "Ġi ngka",
      "Ġpi w",
      "Ġan t",
      "Ġa re",
      "Ġw ul",
      "Ġle li",
      "Ġma lu",
      "Ġfem ngechi",
      "ke lu",
      "le n",
      "en te",
      "a liyiÃ±",
      "e r",
      "Ġ b",
      "le nge",
      "Ġwi li",
      "Ġill am",
      "ĠpÃ¼ tr",
      "Ġtral katu",
      "f tu",
      "nge fu",
      "Ġpe lo",
      "ĠmÃ¼ tr",
      "na g",
      "Ġprofes or",
      "le tu",
      "Ġmu ntu",
      "Ġ duam",
      "Ġle f",
      "to r",
      "sh a",
      "w i",
      "w ud",
      "Ġ Ã¼n",
      "Ġf Ã¼l",
      "Ġd o",
      "Ġpu ltru",
      "Ġwe sha",
      "Ġma sa",
      "Ã¼n e",
      "Ġu rku",
      "Ġall kutu",
      "ĠkÃ¼ nu",
      "fi n",
      "Ġn e",
      "ĠÃ¼ y",
      "le pe",
      "e Ã±",
      "le ymÃ¼",
      "le li",
      "le ymi",
      "le ymÃ¼n",
      "le lmi",
      "Ġw Ã¼",
      "Ġf o",
      "ĠkÃ¼mel kale",
      "p Ã¼",
      "nge liyiÃ±",
      "s i",
      "Ġ v",
      "ke liyiÃ±",
      "Ġa c",
      "Ġpe pi",
      "kÃ¼ m",
      "ĠfÃ¼ ta",
      "c o",
      "c tor",
      "d we",
      "k iÃ±",
      "tu di",
      "le l",
      "Ġf ali",
      "ka w",
      "pa pe",
      "Ġwe mun",
      "Ġwe dwe",
      "Ġes tudi",
      "ĠmÃ¼tr Ã¼m",
      "Ġki yaw",
      "ki yaw",
      "Ġwedwe d",
      "Ġf an",
      "Ġpe r",
      "Ġpe di",
      "pe ra",
      "ĠmÃ¼ pÃ¼",
      "Ġc as",
      "Ġaw kantu",
      "Ġo pera",
      "ng Ã¼",
      "ma pu",
      "Ġlaw en",
      "Ġyafu tu",
      "Ġant Ã¼",
      "r pu",
      "z a",
      "fu y",
      "Ġpe ntuku",
      "Ġr es",
      "Ġma ll",
      "Ġma chi",
      "Ġmu nu",
      "Ġllo w",
      "Ġres pe",
      "tu nge",
      "kefu liyiÃ±",
      "kÃ¼ l",
      "f Ã¼",
      "Ġ to",
      "fu n",
      "fu li",
      "ll a",
      "ma ll",
      "Ġr pu",
      "Ġpu ne",
      "Ġru lpa",
      "Ġmapuche dungu",
      "fu nge",
      "fu lmi",
      "Ġlaw entu",
      "g a",
      "tu y",
      "fu ymÃ¼",
      "fu le",
      "fu ymi",
      "fu ymÃ¼n",
      "fu pe",
      "Ġka rÃ¼",
      "Ġru ng",
      "Ġne ngÃ¼m",
      "Ġcas ti",
      "Ġpu tu",
      "Ġwe che",
      "Ġay u",
      "an ie",
      "Ġ Ã¼m",
      "ngeke y",
      "Ġ s",
      "tu pe",
      "Ġpe w",
      "Ġwi llu",
      "afu n",
      "or ra",
      "Ġpultru n",
      "w en",
      "Ġ t",
      "Ġkim nie",
      "ru pa",
      "Ġlli tu",
      "Ġdo ctor",
      "t aw",
      "el mi",
      "kÃ¼ nu",
      "Ġamu le",
      "a ll",
      "Ġ sa",
      "Ġli f",
      "Ġpa pel",
      "ĠmÃ¼le pu",
      "che fe",
      "nge rke",
      "tu n",
      "tr ipa",
      "Ġch iw",
      "ĠkÃ¼pa ki",
      "Ġchiw ud",
      "Ġw Ã¼ne",
      "ma Ã±",
      "Ġma te",
      "Ġtre ka",
      "n i",
      "tu lmi",
      "Ġye me",
      "ĠÃ± i",
      "ĠngÃ¼n e",
      "ĠpÃ¼tr Ã¼",
      "Ġcasti ga",
      "c i",
      "j e",
      "Ġk aw",
      "tu li",
      "Ġp or",
      "Ġwa ka",
      "Ġin te",
      "Ġwen tru",
      "Ġwemun entu",
      "m Ã¼n",
      "tu ymÃ¼",
      "tu ymi",
      "tu ymÃ¼n",
      "Ġm Ã¼n",
      "ngeke n",
      "ngeke nge",
      "ngeke ymÃ¼",
      "ngeke le",
      "ngeke li",
      "ngeke ymi",
      "ngeke ymÃ¼n",
      "ngeke pe",
      "ngeke lmi",
      "Ġchum ngechi",
      "l on",
      "Ġ g",
      "Ġle l",
      "Ġku re",
      "Ġku lpa",
      "ĠÃ¼l men",
      "Ġmo ntu",
      "do l",
      "Ġwesha kelu",
      "Ġv i",
      "ĠÃ±i dol",
      "m o",
      "Ġm ew",
      "en ew",
      "Ġch i",
      "ngekefu y",
      "Ġchum le",
      "Ġkutran kaw",
      "a e",
      "r kÃ¼",
      "s eÃ±",
      "Ġ C",
      "Ã¼ d",
      "Ġp ri",
      "Ġp amu",
      "Ġn ew",
      "Ġpe kan",
      "Ġtu w",
      "Ġka chu",
      "Ġku rÃ¼",
      "Ġwe rkÃ¼",
      "Ġtr o",
      "afu ymi",
      "Ġtra n",
      "lli pu",
      "Ġpo ye",
      "Ġen seÃ±",
      "Ġlle llipu",
      "r en",
      "Ġpi pi",
      "Ġru f",
      "ngekefu n",
      "ngekefu nge",
      "ngekefu ymÃ¼",
      "ngekefu le",
      "ngekefu li",
      "ngekefu ymi",
      "ngekefu ymÃ¼n",
      "ngekefu pe",
      "ngekefu lmi",
      "fi y",
      "Ġadu mu",
      "Ġtrem o",
      "Ã¼ y",
      "Ġa r",
      "Ġke w",
      "tr o",
      "ka y",
      "ka chu",
      "Ġr ey",
      "Ġku du",
      "Ġwi cha",
      "Ġkatru kachu",
      "ĠngÃ¼ Ã±",
      "Ġngu yu",
      "Ġrespe ta",
      "Ġpri v",
      "Ġrey i",
      "nge pa",
      "tu meke",
      "Ġke tra",
      "Ġm awÃ¼",
      "me w",
      "Ġfen te",
      "Ġang kÃ¼",
      "Ġwel le",
      "Ġestudi a",
      "Ġfan te",
      "ngÃ¼ ma",
      "mapu dungu",
      "Ġpekan ka",
      "f re",
      "g ente",
      "Ġke lu",
      "Ġn ey",
      "Ġku de",
      "Ġku cha",
      "afu le",
      "afu lmi",
      "ay aw",
      "Ġkimel fe",
      "fe m",
      "Ġad entu",
      "Ġcho ko",
      "Ġh u",
      "Ġpiw ke",
      "Ġmalu ka",
      "Ġac or",
      "Ġmall mall",
      "Ġpe lon",
      "Ġwe f",
      "afu nge",
      "afu ymÃ¼",
      "afu li",
      "afu ymÃ¼n",
      "afu pe",
      "ĠkÃ¼paki m",
      "ĠngÃ¼Ã± Ã¼",
      "tr e",
      "Ġf a",
      "pa f",
      "Ġng Ã¼l",
      "Ġwe w",
      "Ġpa lo",
      "kÃ¼le pe",
      "Ġtra ri",
      "Ġpo fre",
      "Ġllo ftu",
      "Ġrung al",
      "Ġa tu",
      "pi tu",
      "ngeke r",
      "Ġaye tu",
      "Ġlo lo",
      "Ġpelo ntu",
      "d anie",
      "f ku",
      "n iw",
      "q u",
      "Ġl l",
      "Ġch ali",
      "Ġka ll",
      "Ġtr i",
      "lo l",
      "Ġu niw",
      "Ġtrana rupa",
      "Ġb orra",
      "Ġmasa tu",
      "Ġper de",
      "l ka",
      "y ael",
      "Ġngilla me",
      "Ġtraf o",
      "e li",
      "Ġm aw",
      "ngea nge",
      "ngea ymÃ¼",
      "ngea le",
      "ngea ymi",
      "ngea ymÃ¼n",
      "ngea pe",
      "ngea lmi",
      "i n",
      "i le",
      "nge ay",
      "nge an",
      "nge ali",
      "Ġkim wi",
      "kÃ¼le y",
      "Ġkimel tu",
      "Ġna kÃ¼m",
      "Ġcha f",
      "w el",
      "ke lay",
      "le liyiÃ±",
      "Ġy el",
      "Ġla ku",
      "Ġang k",
      "wen tru",
      "ĠenseÃ± a",
      "Ġpriv a",
      "Ġtuku lel",
      "kÃ¼le n",
      "Ġfo tra",
      "Ġn amu",
      "Ġku tra",
      "entu ku",
      "Ġwi tran",
      "Ġel kunu",
      "kÃ¼le nge",
      "kÃ¼le ymÃ¼",
      "kÃ¼le le",
      "kÃ¼le li",
      "kÃ¼le ymi",
      "kÃ¼le ymÃ¼n",
      "kÃ¼le lmi",
      "Ġtra y",
      "Ġkon pa",
      "ngea el",
      "fi iÃ±",
      "Ġan Ã¼m",
      "Ġutruf nag",
      "ĠC h",
      "nge lu",
      "ma y",
      "Ġdewma i",
      "Ġaw kiÃ±",
      "ĠÃ¼ rke",
      "Ġkisu le",
      "Ġacor da",
      "a r",
      "g en",
      "y ngÃ¼n",
      "Ġp re",
      "pa n",
      "el u",
      "Ġe ll",
      "Ġchum kunu",
      "Ġwa ngku",
      "Ġpo b",
      "Ġwen Ã¼y",
      "t en",
      "ke r",
      "ma n",
      "Ġpi ke",
      "Ġka n",
      "Ġtuku nie",
      "Ġd i",
      "Ġyel me",
      "Ġke tro",
      "Ã± u",
      "Ã± mew",
      "Ġy Ã±",
      "Ġma n",
      "Ġru ngku",
      "Ġtra pu",
      "ĠngÃ¼ paf",
      "Ġtre pe",
      "Ġtre fku",
      "Ġc e",
      "Ġchill ka",
      "Ġh o",
      "ĠwÃ¼ za",
      "Ġkall pitu",
      "p o",
      "pa nge",
      "pa ymÃ¼",
      "pa le",
      "pa li",
      "pa ymi",
      "pa ymÃ¼n",
      "pa lmi",
      "Ġka ru",
      "pu n",
      "kel afuy",
      "Ġmuntu Ã±ma",
      "Ġpob re",
      "a ng",
      "d ente",
      "e p",
      "i on",
      "l an",
      "Ã± o",
      "ch aw",
      "Ġpi yaw",
      "Ġka maÃ±",
      "Ġamu tu",
      "meke n",
      "meke y",
      "meke nge",
      "meke ymÃ¼",
      "meke le",
      "meke li",
      "meke ymi",
      "meke ymÃ¼n",
      "meke pe",
      "meke lmi",
      "Ġinte re",
      "entuku nie",
      "Ġpre si",
      "Ġkaru katu",
      "chaw all",
      "a fi",
      "f ke",
      "u n",
      "y en",
      "nge lay",
      "ke iÃ±",
      "Ġwe Ã±",
      "ĠfÃ¼ cha",
      "qu i",
      "b i",
      "d w",
      "r me",
      "r am",
      "Ġ T",
      "Ġa wa",
      "Ġpe me",
      "ka maÃ±",
      "Ġki ma",
      "pu y",
      "Ġtr u",
      "ill o",
      "Ġe lla",
      "lo ngko",
      "an chu",
      "Ġkon Ã¼m",
      "Ġlu f",
      "Ġlu p",
      "ngka dungu",
      "Ġc er",
      "Ġmo ngele",
      "di gen",
      "Ã±e Ã±",
      "Ġin digen",
      "mel mi",
      "ĠpÃ¼ Ã±eÃ±",
      "Ġko l",
      "Ġcho m",
      "ĠwÃ¼ dw",
      "Ġfo l",
      "Ġkaw iÃ±",
      "Ġtro ki",
      "Ġkimwi ngkadungu",
      "Ġpresi dente",
      "ĠkonÃ¼m pa",
      "ĠwÃ¼dw Ã¼d",
      "l afuy",
      "o chi",
      "Ġ M",
      "ke la",
      "Ã± iw",
      "Ġf Ã¼tra",
      "ĠkÃ¼ tran",
      "Ġpi lu",
      "pu nge",
      "pu tu",
      "pu ymÃ¼",
      "pu le",
      "pu li",
      "pu ymi",
      "pu ymÃ¼n",
      "pu pe",
      "pu lmi",
      "Ġla y",
      "Ġmapu n",
      "Ġentu Ã±ma",
      "Ġc o",
      "Ġes c",
      "Ġwaka kamaÃ±",
      "a je",
      "a chawall",
      "d ew",
      "i el",
      "o to",
      "r amtu",
      "t ay",
      "z Ã¼m",
      "Ġp Ã¼ne",
      "mi ta",
      "Ġpe ll",
      "Ġpi nge",
      "Ġpi le",
      "Ġpi ngÃ¼m",
      "Ġng a",
      "kÃ¼ daw",
      "Ġka mapu",
      "Ġku ru",
      "Ġku Ã±iw",
      "Ġkim Ã¼",
      "Ġkim wud",
      "Ġkim mapudungu",
      "Ġi pay",
      "Ġma Ã±u",
      "Ġla ntu",
      "on c",
      "ra ko",
      "afu l",
      "pi ru",
      "Ġay entu",
      "Ġd a",
      "Ġd es",
      "Ġdungu le",
      "Ġentu me",
      "Ġchu ma",
      "fe rme",
      "ĠngÃ¼ rÃ¼",
      "ĠÃ± ochi",
      "Ġngillatu Ã±ma",
      "Ġaku tu",
      "ĠallkÃ¼ tu",
      "Ġmi s",
      "Ġpuw tu",
      "Ġc eÃ±",
      "Ġpichi wentru",
      "Ġin aful",
      "ĠpÃ¼ zÃ¼m",
      "Ġko fke",
      "Ġen ferme",
      "Ġprofes ion",
      "Ġang kÃ¼m",
      "Ġngu tu",
      "Ġwel u",
      "Ġta ku",
      "Ġpelo ta",
      "Ġac ep",
      "Ġto da",
      "Ġpew ma",
      "Ġpor oto",
      "Ġvi aje",
      "Ġtran an",
      "in c",
      "Ġkutra ntu",
      "Ġce men",
      "ĠT e",
      "Ġcer ra",
      "Ġkol letu",
      "Ġchom piru",
      "ĠkÃ¼tran ku",
      "Ġmapun che",
      "Ġkuru f",
      "Ġkimwud wud",
      "Ġenferme ra",
      "a lu",
      "f all",
      "l kale",
      "Ġfu ri",
      "pu ram",
      "Ġtuku l",
      "rke n",
      "Ġutru kunu",
      "Ġilo achawall",
      "ey Ã±mew",
      "Ġwen che",
      "Ġaw ka",
      "Ġen ten",
      "ĠpÃ¼tr Ã¼n",
      "Ġmachi tu",
      "Ġnamu n",
      "d pu",
      "f tripa",
      "i co",
      "n taw",
      "y lla",
      "z inc",
      "Ġ zinc",
      "ke Ã±",
      "Ġa Ã±o",
      "tr Ã¼",
      "li ca",
      "li gente",
      "Ġw ay",
      "Ġw ud",
      "Ġfu l",
      "Ġfu er",
      "ka di",
      "Ġr e",
      "Ġr ali",
      "Ġpi ti",
      "Ġng an",
      "Ġpu na",
      "Ġku ri",
      "Ġku ntaw",
      "Ġi mi",
      "Ġi ngku",
      "Ġwe y",
      "Ġwe do",
      "am po",
      "Ġma tru",
      "Ġwi lu",
      "Ġwi dpu",
      "Ġtr aw",
      "on da",
      "mu co",
      "ĠkÃ¼pa kÃ¼daw",
      "Ġe x",
      "Ġe du",
      "ngeke liyiÃ±",
      "lu l",
      "Ġu lel",
      "Ġfem kel",
      "ri gente",
      "da d",
      "Ġngo ylla",
      "Ġwa keÃ±",
      "Ġaku Ã±ma",
      "Ġc al",
      "Ġllika l",
      "Ġmo tr",
      "Ġlla ma",
      "key ngÃ¼n",
      "Ġap ren",
      "Ġpo d",
      "Ġpo yen",
      "ĠngÃ¼ma ngÃ¼ma",
      "Ġyew en",
      "ey ew",
      "Ġan Ã¼",
      "Ġweda lkale",
      "ĠweÃ±e Ã±ma",
      "Ġaf kadi",
      "as o",
      "as ico",
      "Ġutruf entu",
      "Ġno chi",
      "Ġko ntu",
      "Ġngolli Ã±ma",
      "Ġen e",
      "ne j",
      "Ġcha mall",
      "Ġwallo Ã±",
      "Ġngu Ã±e",
      "Ġayiw kÃ¼le",
      "Ġare tu",
      "Ġb asico",
      "Ġwili f",
      "Ġwili tu",
      "ĠÃ¼y tu",
      "Ġlawentu chefe",
      "Ġs onda",
      "Ġpew Ã¼d",
      "Ġsa ca",
      "Ġlif kÃ¼le",
      "Ġpor ta",
      "Ġinte ligente",
      "Ġg as",
      "Ġvi si",
      "Ġtran qui",
      "Ġar ren",
      "Ġney fÃ¼",
      "Ġhu mita",
      "Ġmaluka Ã±ma",
      "Ġfa rako",
      "ĠngÃ¼l am",
      "Ġpriva ti",
      "ĠCh ile",
      "Ġdewmai yael",
      "Ġkan ta",
      "Ġdi rigente",
      "Ġho ra",
      "ĠweÃ± ang",
      "Ġfol tra",
      "Ġesc ri",
      "Ġnga pi",
      "ĠngÃ¼rÃ¼ f",
      "Ġmis aw",
      "Ġprofesion al",
      "Ġacep ta",
      "Ġcemen ta",
      "ĠTe muco",
      "Ġway chu",
      "Ġwud wud",
      "Ġfuer te",
      "Ġwedo z",
      "Ġwilu f",
      "n aw",
      "Ã¼ ll",
      "Ã± mu",
      "Ġpe pa",
      "ll o",
      "kefu iÃ±",
      "du amtu",
      "Ġwe ftu",
      "Ġtr illa",
      "Ġtuku tu",
      "ra ki",
      "afu liyiÃ±",
      "Ġngilla ka",
      "ĠmÃ¼le rume",
      "Ġamu ka",
      "rke y",
      "rke nge",
      "rke ymÃ¼",
      "rke le",
      "rke li",
      "rke ymi",
      "rke ymÃ¼n",
      "rke pe",
      "rke lmi",
      "Ġall fÃ¼",
      "ĠÃ± mu",
      "ĠngÃ¼n elu",
      "Ġaye ka",
      "Ġpura kintu",
      "Ġllad k",
      "Ġwall pa",
      "ĠwiÃ±o raki",
      "Ġkuy danie",
      "pel ay",
      "Ġwel ul",
      "Ġfemngechi le",
      "Ġto ca",
      "ayaw Ã¼l",
      "Ġlloftu me",
      "wel ay",
      "Ġman da",
      "ĠweÃ±ang k",
      "ĠwiÃ±oraki duamtu",
      "a iÃ±",
      "i lo",
      "m entu",
      "n ru",
      "p lica",
      "z onc",
      "Ġ A",
      "Ġ te",
      "Ġ sh",
      "ng li",
      "ng ar",
      "Ã¼ mun",
      "Ġp am",
      "ke e",
      "Ġa lu",
      "Ġa lo",
      "Ġa ngÃ¼m",
      "Ġn ay",
      "Ã± i",
      "Ġy entukunie",
      "tr iw",
      "li to",
      "Ġf orra",
      "Ġtu n",
      "pa m",
      "pa lol",
      "ma chi",
      "Ġpi de",
      "Ġch Ã¼",
      "Ġku ntu",
      "Ġku ltru",
      "Ġku mentu",
      "Ġwe ma",
      "on fu",
      "Ġpa triw",
      "mu ntu",
      "ĠkÃ¼pa y",
      "ĠkÃ¼pa ilo",
      "ĠkÃ¼pa machi",
      "Ġru nru",
      "Ġay Ã¼",
      "lu w",
      "Ġtra p",
      "Ġu ngu",
      "Ġu sa",
      "Ġkon taw",
      "ĠkÃ¼daw me",
      "Ġlu lul",
      "Ġkimel u",
      "Ġad kunu",
      "ĠngÃ¼ trÃ¼",
      "ĠÃ± iw",
      "Ġaye Ã±ma",
      "Ġmo ngetu",
      "Ġfeypi pi",
      "Ġadu ma",
      "Ġutru nag",
      "Ġtrem Ã¼",
      "Ġfen tre",
      "upi w",
      "Ġlongko tuku",
      "lpa lol",
      "Ġfal ta",
      "Ġcho d",
      "Ġo pi",
      "Ġcha pam",
      "Ġingka tu",
      "Ġmasa je",
      "Ġper kan",
      "Ġmall man",
      "Ġto ka",
      "Ġrung o",
      "Ġwillu f",
      "Ġt onfu",
      "Ġsa kiÃ±",
      "Ġtro ngli",
      "Ġhu aso",
      "Ġpalo palol",
      "Ġpalo lpalol",
      "Ġll am",
      "Ġll Ã¼mun",
      "Ġtri ngar",
      "Ġuniw kÃ¼le",
      "Ġell ka",
      "Ġda kelu",
      "Ġdes may",
      "Ġenten de",
      "ampo o",
      "Ġex plica",
      "Ġcal zonc",
      "Ġapren de",
      "Ġtranqui lito",
      "Ġescri bi",
      "ĠngÃ¼nelu w",
      "Ġsh ampoo",
      "Ġpam upiw",
      "Ġalo f",
      "Ġnay kÃ¼",
      "Ġrunru n",
      "ĠÃ±iw un",
      "ĠllÃ¼mun Ã¼",
      "Ġcalzonc illo",
      "a g",
      "f iÃ±",
      "f al",
      "Ġw Ã¼n",
      "el a",
      "Ġtuku ka",
      "Ġdungu pape",
      "fe ma",
      "Ġnu mu",
      "Ġtral ka",
      "Ġtrapu m",
      "ĠchÃ¼ fÃ¼",
      "a ma",
      "s o",
      "t ew",
      "Ġfu re",
      "Ġka ta",
      "kÃ¼le liyiÃ±",
      "ĠmÃ¼le ka",
      "Ġentu nie",
      "ru men",
      "ngekefu liyiÃ±",
      "ri a",
      "ĠngÃ¼ Ã±e",
      "rume li",
      "Ġutruf rupa",
      "Ġngen ngepa",
      "Ġfan e",
      "ci on",
      "Ġgas ta",
      "Ġngillaka me",
      "Ġlongkotuku nie",
      "Ġopi na",
      "ĠnaykÃ¼ me",
      "s ta",
      "y an",
      "Ġ F",
      "Ġy en",
      "ch ew",
      "Ġi yu",
      "ru melmi",
      "Ġdo mo",
      "ym ew",
      "tu liyiÃ±",
      "fu liyiÃ±",
      "ch iÃ±",
      "Ġng ill",
      "ngea liyiÃ±",
      "Ġc a",
      "Ġfeypi ke",
      "Ġap Ã¼",
      "rume y",
      "rume nge",
      "rume ymÃ¼",
      "rume le",
      "rume ymi",
      "rume ymÃ¼n",
      "rume pe",
      "c u",
      "m pu",
      "p en",
      "w Ã¼n",
      "nge l",
      "Ġki me",
      "afu e",
      "fi sa",
      "ĠnÃ¼tramka y",
      "pel mi",
      "no lu",
      "ni en",
      "ni elmi",
      "Ġintere sa",
      "b a",
      "s e",
      "v i",
      "ke fin",
      "en tru",
      "Ġpi ngeke",
      "Ġkim we",
      "Ġru ka",
      "Ġd e",
      "Ġtra pi",
      "Ġamu l",
      "ĠkÃ¼daw le",
      "Ġchum ka",
      "Ġall ku",
      "meke liyiÃ±",
      "fi mi",
      "fi el",
      "Ġc u",
      "do mo",
      "Ġapo le",
      "Ġlongko le",
      "Ġngen nge",
      "Ġko y",
      "Ġwallo Ã±ma",
      "Ġpapel tu",
      "Ġmate tu",
      "Ġawa r",
      "Ġindigen a",
      "Ġngill ay",
      "a d",
      "f o",
      "i en",
      "Ġ S",
      "Ġw u",
      "pa liyiÃ±",
      "el tu",
      "Ġpi pu",
      "Ġpi afu",
      "Ġpi rume",
      "me pe",
      "Ġka le",
      "pu liyiÃ±",
      "Ġkim entu",
      "Ġwe chew",
      "Ġkon pay",
      "yaw l",
      "rke liyiÃ±",
      "Ġlu ku",
      "ĠnÃ¼tramka w",
      "ĠnÃ¼tramka pe",
      "Ġllika le",
      "Ġpichi che",
      "Ġpichi domo",
      "Ġramtu kay",
      "Ġwall Ã±ma",
      "Ġwingkadungu le",
      "Ġraki du",
      "Ġanu le",
      "Ġumaw tu",
      "Ġngolli yaw",
      "Ġs anchu",
      "Ġnew en",
      "Ġkew ay",
      "ĠanÃ¼m che",
      "Ġintere s",
      "Ġlup Ã¼m",
      "ĠwakakamaÃ± kiyaw",
      "Ġwechew entru",
      "a f",
      "f Ã¼l",
      "l tu",
      "o l",
      "t illa",
      "w lu",
      "Ġ ym",
      "ng illa",
      "ke w",
      "ke chefe",
      "Ġa l",
      "Ġke che",
      "Ġm illa",
      "li Ã±",
      "Ġf ale",
      "Ġpe ngel",
      "ka tru",
      "aw i",
      "Ġr pa",
      "Ġpi eli",
      "Ġka ntu",
      "Ġku dew",
      "ew kÃ¼le",
      "Ġwi mun",
      "Ġel me",
      "Ġel che",
      "Ġla ngÃ¼ma",
      "Ġye pa",
      "Ġye ngetu",
      "Ã±ma y",
      "ĠkÃ¼pa katru",
      "chi wentru",
      "afu iÃ±",
      "pi chiwentru",
      "Ġche le",
      "Ġentu nge",
      "ĠkÃ¼daw tu",
      "Ġchum nge",
      "Ġdewma y",
      "Ġdewma ye",
      "la iÃ±",
      "Ġchem kÃ¼le",
      "Ġelu Ã±ma",
      "Ġkellu nie",
      "Ġc on",
      "ĠngÃ¼n ewkÃ¼le",
      "Ġilo nge",
      "Ġmiyaw li",
      "Ġap Ã¼m",
      "Ġtrem puram",
      "ĠÃ¼lkantu fe",
      "Ġngoym ange",
      "Ġchillkatu me",
      "Ġutruf tu",
      "Ġanu m",
      "ĠÃ¼ w",
      "Ġwitra mpu",
      "Ġina ramtu",
      "Ġweupi me",
      "ĠkÃ¼mel ka",
      "ley ngÃ¼n",
      "rku dew",
      "Ġamatu kefu",
      "kechi le",
      "Ġpiw key",
      "Ġduam kÃ¼le",
      "Ġwesha tule",
      "ĠmÃ¼pÃ¼ yaw",
      "Ġawkantu fe",
      "ĠantÃ¼ le",
      "Ġmunu l",
      "Ġllow dungu",
      "Ġmapuchedungu le",
      "Ġtreka yaw",
      "ci a",
      "Ġweshakelu kiyaw",
      "ĠÃ±idol kÃ¼nu",
      "ĠngÃ¼l a",
      "Ġayetu kechefe",
      "ĠwenÃ¼y wen",
      "Ġawa rkudew",
      "Ġella pichiwentru",
      "Ġindigen ange",
      "ĠM a",
      "Ġpell ke",
      "Ġpell kele",
      "ĠmaÃ±u m",
      "ĠngillatuÃ±ma nie",
      "Ġviaje yaw",
      "Ġtranan ag",
      "Ġkutrantu kunu",
      "Ġwey cha",
      "Ġedu ca",
      "Ġprivati za",
      "ĠwÃ¼n en",
      "Ġyen iel",
      "Ġkimwe upi",
      "Ġallku tule",
      "Ġkoy la",
      "Ġinteres ay",
      "Ġwitrampu ra",
      "a du",
      "c e",
      "g ange",
      "m Ã¼",
      "m wlu",
      "p ie",
      "r awi",
      "s anchu",
      "t ayawÃ¼l",
      "w le",
      "z ale",
      "Ġ N",
      "Ġ P",
      "Ġ ti",
      "Ã¼ le",
      "tu ka",
      "ke pu",
      "Ġa ngka",
      "le ftripa",
      "Ġpe nie",
      "Ġpe fall",
      "ka lmi",
      "ka fe",
      "ka fem",
      "ka ramtu",
      "ll mi",
      "ll ange",
      "ĠkÃ¼ llu",
      "pa tu",
      "ma nej",
      "aw kiÃ±",
      "Ġpi fu",
      "Ġpi pe",
      "Ġpi kunu",
      "Ġpi ngefu",
      "Ġpi ngekey",
      "Ġpi ngerke",
      "Ġfe ma",
      "Ġka ngetu",
      "Ġkim dungu",
      "Ġkim Ã¼l",
      "Ġkim kerke",
      "Ġkim ngilla",
      "Ġkim manej",
      "Ġi y",
      "Ġi ltu",
      "ntu yaw",
      "Ġma nej",
      "Ġnie f",
      "Ġnie el",
      "Ġwi rawi",
      "Ġel kÃ¼nu",
      "Ġye kerke",
      "Ġye tumeke",
      "Ġye kafem",
      "Ġtuku meke",
      "Ġtuku yawl",
      "ĠkÃ¼pa w",
      "ĠkÃ¼pa kon",
      "ĠkÃ¼pa adu",
      "chi wud",
      "Ġfey ngerke",
      "Ġche ngerke",
      "Ġay ul",
      "Ġay eltu",
      "ngeke lafuy",
      "Ġdungu me",
      "Ġdungu meke",
      "Ġdungu chefe",
      "Ġngilla pay",
      "ĠmÃ¼le ker",
      "che m",
      "Ġkon Ã¼",
      "Ġkon we",
      "Ġkon putu",
      "ru kafe",
      "Ġfem Ã¼",
      "ĠkÃ¼daw ke",
      "ĠkÃ¼daw kÃ¼le",
      "ĠkÃ¼daw pay",
      "ĠkÃ¼daw ngefu",
      "Ġdewma ke",
      "Ġdewma nie",
      "Ġdewma kele",
      "Ġdewma rukafe",
      "Ġkimel mapudungu",
      "Ġkatru Ã±ma",
      "Ġkatru ntuku",
      "Ġkatru fem",
      "Ġchem ke",
      "Ġchem kerke",
      "Ġad ngetu",
      "Ġelu ye",
      "Ġmapudungu n",
      "Ġtre kale",
      "kunu Ã±ma",
      "wa llo",
      "Ġtripa y",
      "Ġngillatu me",
      "Ġngillatu pu",
      "Ġngillatu yaw",
      "Ġngillatu kel",
      "ĠallkÃ¼ tumeke",
      "Ġnentu ngetu",
      "Ġkellu mu",
      "Ġkellu kew",
      "Ġfeypi ngerke",
      "Ġkewa tu",
      "Ġwingka w",
      "Ġilo tuka",
      "Ġkintu Ã±ma",
      "Ġmiyaw l",
      "Ġmiyaw Ã¼ll",
      "Ġnag ad",
      "Ġmapuche kechi",
      "lay ay",
      "ĠngÃ¼ma kon",
      "ĠÃ¼lkantu le",
      "ĠÃ¼lkantu yaw",
      "Ġyew enie",
      "Ġngoym anie",
      "ĠlladkÃ¼ dungu",
      "Ġwiri fe",
      "Ġwiri ntuku",
      "Ġwingkadungu tu",
      "kefuy ngÃ¼n",
      "ĠwiÃ±o me",
      "Ġfam nag",
      "Ġfam tripa",
      "Ġfam naw",
      "Ġwira rke",
      "Ġin ay",
      "Ġadum Ã¼",
      "Ġputoko kerke",
      "Ġweda Ã±ma",
      "Ġweda pay",
      "Ġweda lka",
      "Ġnaw pu",
      "Ġnaw fem",
      "Ġaf tuku",
      "Ġchillkatu ku",
      "Ġngen pi",
      "ĠtrawÃ¼ le",
      "Ġanu kunu",
      "Ġngoyma tu",
      "Ġngoyma ntuku",
      "Ġwitra le",
      "ĠÃ±am pe",
      "ĠÃ±am kon",
      "Ġina karamtu",
      "Ġweupi fe",
      "Ġpur am",
      "ĠkiÃ± ew",
      "Ġcho kunu",
      "ĠlangÃ¼m ngerke",
      "ĠkÃ¼mel ke",
      "Ġcha ftu",
      "ĠkiÃ±e kele",
      "ĠkiÃ±e ngefu",
      "tuku maw",
      "Ġwallo wallo",
      "kon kÃ¼le",
      "no ael",
      "Ġpurru n",
      "amu n",
      "Ġyafu lu",
      "Ġdulli tu",
      "Ġwirar w",
      "Ġwirar kon",
      "Ġrel kÃ¼le",
      "Ġrel kunu",
      "Ġrel kerke",
      "Ġtralkatu ngefu",
      "Ġlef tripa",
      "Ġlef leftripa",
      "ĠfÃ¼l fÃ¼l",
      "Ġmasa tule",
      "Ġne ngÃ¼ma",
      "Ġpepi ka",
      "Ġfali ngetu",
      "Ġestudi ale",
      "Ġwedwed kÃ¼le",
      "Ġyafutu kunu",
      "Ġmunu lu",
      "Ġmunu longko",
      "Ġrespe taw",
      "Ġrespe tay",
      "Ġlawentu Ã±mu",
      "Ġcasti gange",
      "ĠkÃ¼paki mi",
      "Ġchiwud chiwud",
      "Ġyeme tu",
      "ĠpÃ¼trÃ¼ le",
      "Ġkaw el",
      "Ġwemunentu nge",
      "Ġkure yaw",
      "Ġweshakelu tule",
      "Ġchumle rpu",
      "Ġchumle af",
      "Ġkutrankaw le",
      "Ġpamu longko",
      "Ġnew entu",
      "ĠkurÃ¼ le",
      "ĠenseÃ± ange",
      "Ġpipi ngeker",
      "Ġwicha ke",
      "Ġwelle wel",
      "Ġkucha tu",
      "Ġkucha fo",
      "Ġadentu le",
      "Ġacor danie",
      "Ġpofre le",
      "Ġayetu fall",
      "Ġkimwi ri",
      "Ġnamu ntuyaw",
      "Ġwitran puram",
      "ĠawkiÃ± awkiÃ±",
      "Ġkisule we",
      "Ġell ay",
      "ĠfÃ¼cha che",
      "Ġtroki w",
      "Ġpinge r",
      "Ġpinge kunu",
      "Ġpile rpu",
      "ĠkuÃ±iw tu",
      "ĠkimÃ¼ rpu",
      "Ġdungule rpu",
      "ĠngillatuÃ±ma le",
      "Ġkofke fe",
      "ĠangkÃ¼m meke",
      "Ġpelota tumeke",
      "Ġporoto kechi",
      "Ġchompiru tule",
      "Ġkuruf tukumaw",
      "Ġpuna konkÃ¼le",
      "Ġkuri ntuku",
      "Ġingku kunu",
      "ĠkÃ¼pakÃ¼daw tule",
      "Ġngoylla tu",
      "Ġmotr i",
      "Ġmotr ile",
      "Ġpod Ã¼l",
      "ĠnguÃ±e le",
      "ĠpewÃ¼d kiyaw",
      "Ġvisi ta",
      "Ġvisi tayawÃ¼l",
      "Ġarren da",
      "ĠneyfÃ¼ kÃ¼nu",
      "Ġkanta le",
      "Ġdirigente kunu",
      "ĠngÃ¼rÃ¼f nie",
      "Ġwaychu f",
      "Ġwaychu ftripa",
      "Ġwedoz kÃ¼nu",
      "Ġtukutu lu",
      "Ġpurakintu nie",
      "Ġwallpa chem",
      "Ġpingeke f",
      "Ġanule ka",
      "Ġpiwkey ew",
      "ĠkimÃ¼l kantu",
      "Ġmanej a",
      "Ġwirawi ra",
      "ĠkÃ¼paadu mwlu",
      "Ġdungumeke r",
      "Ġkatruntuku Ã±ma",
      "Ġkatrufem Ã±ma",
      "Ġnagad kintu",
      "ĠlawentuÃ±mu pay",
      "Ġkuchafo tra",
      "d ayaw",
      "e nge",
      "e ymÃ¼",
      "e le",
      "e ymi",
      "e ymÃ¼n",
      "e pe",
      "f amtu",
      "g u",
      "l we",
      "n on",
      "o s",
      "o lu",
      "w y",
      "w nge",
      "w ymÃ¼",
      "w li",
      "w ymi",
      "w ymÃ¼n",
      "w pe",
      "w lmi",
      "y yaw",
      "Ġ B",
      "Ġ G",
      "Ġ L",
      "Ã¼ me",
      "Ġl tuku",
      "tu kunu",
      "Ġp on",
      "ke kon",
      "Ġn iel",
      "Ġw che",
      "Ġle pu",
      "Ġle putu",
      "Ġtu ntu",
      "ka nge",
      "ka ymÃ¼",
      "ka li",
      "ka ymi",
      "ka ymÃ¼n",
      "ka pe",
      "Ġli ftu",
      "kefu eyÃ±mew",
      "Ġpi me",
      "Ġpi kel",
      "tra yyaw",
      "Ġka letu",
      "Ġkim tu",
      "Ġkim ngÃ¼",
      "Ġkim kÃ¼l",
      "Ġkim fem",
      "ntu kele",
      "Ġwe muntu",
      "Ġnie r",
      "Ġnie Ã±mu",
      "Ġwi muntu",
      "nu yu",
      "Ġla pa",
      "Ġla kutu",
      "Ġye Ã±ma",
      "Ġye lel",
      "Ġye rpu",
      "Ġtuku kunu",
      "Ġtuku ngeker",
      "Ã±ma ngefu",
      "ĠkÃ¼pa tu",
      "ĠkÃ¼pa dungu",
      "ĠkÃ¼pa do",
      "ĠkÃ¼pa wi",
      "ĠkÃ¼pa tre",
      "ĠkÃ¼pa kekon",
      "pi w",
      "Ġe pe",
      "Ġfey pie",
      "Ġche ma",
      "Ġche ngefu",
      "Ġdungu dungu",
      "kÃ¼le tu",
      "kÃ¼le ke",
      "Ġtra pitu",
      "Ġmapu ngetu",
      "ĠmÃ¼le tu",
      "ĠmÃ¼le pe",
      "ĠmÃ¼le ye",
      "ĠmÃ¼le kerke",
      "ĠmÃ¼le mÃ¼",
      "Ġentu ke",
      "che ngefu",
      "ru ngku",
      "Ã¼l le",
      "Ġfem ke",
      "ĠkÃ¼daw kechi",
      "ĠkÃ¼daw naw",
      "Ġall ka",
      "Ġall katu",
      "Ġkimel kerke",
      "meke ker",
      "re a",
      "Ġchem kunu",
      "Ġchem chiÃ±",
      "Ġad kÃ¼nu",
      "Ġelu mu",
      "Ġmapudungu ke",
      "Ġmapudungu ntu",
      "Ġmapudungu letu",
      "ĠngÃ¼ re",
      "Ġlli katu",
      "wa ngku",
      "Ġtripa l",
      "Ġtripa kerke",
      "ĠnÃ¼tramka pa",
      "Ġkutran amun",
      "Ġkutran piw",
      "or o",
      "Ġaku l",
      "ĠallkÃ¼ Ã±ma",
      "Ġnentu Ã±ma",
      "Ġnentu nie",
      "Ġkellu me",
      "ĠkÃ¼me kunu",
      "Ġna kÃ¼",
      "Ġllika nie",
      "Ġllika kÃ¼l",
      "Ġpura y",
      "Ġfeypi r",
      "Ġfeypi pe",
      "Ġkewa ngeker",
      "Ġpichi letu",
      "Ġramtu pay",
      "Ġnu w",
      "Ġnu kÃ¼le",
      "Ġilo kaw",
      "Ġkintu mi",
      "Ġfele r",
      "Ġfele kerke",
      "Ġnag kÃ¼le",
      "Ġtrem kerke",
      "Ġtrem kÃ¼letu",
      "ĠngÃ¼ma y",
      "Ġrupa y",
      "ĠlladkÃ¼ tumeke",
      "Ġwiri tu",
      "Ġwiri kon",
      "Ġwingkadungu ka",
      "Ġwingkadungu ngele",
      "Ġadkintu yaw",
      "Ġadkintu kepu",
      "ĠwiÃ±o dungu",
      "Ġfam kunu",
      "Ġfam famtu",
      "Ġin anie",
      "Ġin ayawÃ¼l",
      "Ġtrana kunu",
      "Ġkuy dayaw",
      "Ġputoko l",
      "ĠweÃ±e ngepa",
      "ĠweÃ±e kunuÃ±ma",
      "Ġaf kÃ¼le",
      "Ġapo letu",
      "Ġngen Ã±mangefu",
      "Ġanu tuku",
      "Ġtraf tu",
      "Ġtraf Ã¼m",
      "Ġwitra y",
      "ĠÃ±am yaw",
      "Ġko m",
      "Ġumaw le",
      "Ġumaw kÃ¼le",
      "Ġweupi tunge",
      "Ġfal Ã¼l",
      "Ġfal Ã¼le",
      "Ġpur rume",
      "Ġkuyda pa",
      "ne ngÃ¼m",
      "ĠkÃ¼mel kay",
      "Ġfende me",
      "Ġwallo ntu",
      "Ġmonge l",
      "Ġwel lele",
      "kel afun",
      "Ġnuyu nuyu",
      "Ġta lla",
      "Ġta llange",
      "Ġleli tu",
      "Ġleli nie",
      "lenge pa",
      "ĠpÃ¼tr Ã¼lle",
      "Ġtralkatu kon",
      "Ġprofesor nge",
      "Ġprofesor ngeke",
      "Ġprofesor mekeker",
      "ĠfÃ¼l kon",
      "Ġurku tule",
      "ĠÃ¼y el",
      "ĠkÃ¼melkale tu",
      "kiyaw pe",
      "ngÃ¼ paf",
      "Ġpune tuku",
      "Ġlawentu chengefu",
      "ĠkarÃ¼ le",
      "ĠnengÃ¼m nengÃ¼m",
      "Ġweche che",
      "Ġpultrun nie",
      "Ġt Ã¼",
      "Ġamule ka",
      "ĠwÃ¼ne tu",
      "Ġcastiga ngeker",
      "Ġpipi ye",
      "Ġadumu luw",
      "Ã¼y kiyawpe",
      "Ġkew ayaw",
      "Ġreyi pe",
      "ĠangkÃ¼ nag",
      "Ġestudia patu",
      "Ġkimelfe nge",
      "Ġpiwke kechi",
      "ĠkÃ¼pakim mapudungu",
      "tre fku",
      "Ġtrari nie",
      "Ġpelontu ker",
      "Ġchali w",
      "Ġkall pi",
      "Ġtri r",
      "Ġtri ra",
      "Ġmasatu me",
      "ĠenseÃ±a che",
      "Ġelkunu rpu",
      "Ġtray trayyaw",
      "Ġkonpa fema",
      "Ġdewmai y",
      "Ġkisule ka",
      "Ġwangku wangku",
      "Ġrungku rungku",
      "ĠngÃ¼paf ngÃ¼paf",
      "Ġtrefku trefku",
      "ĠwÃ¼za tu",
      "Ġinaful kÃ¼le",
      "Ġpewma nge",
      "Ġtranan awÃ¼",
      "Ġtukul ngetu",
      "ĠpÃ¼trÃ¼n le",
      "Ġrali kechi",
      "Ġwey ch",
      "Ġedu c",
      "Ġfemkel le",
      "Ġnochi lka",
      "Ġene kechi",
      "Ġchamall tu",
      "ĠwalloÃ± me",
      "Ġaretu Ã¼ykiyawpe",
      "Ġsonda tule",
      "Ġprivati zale",
      "ĠTemuco che",
      "ĠallfÃ¼ luw",
      "Ġkuydanie pa",
      "Ġwelul tuku",
      "ĠangÃ¼m el",
      "Ġkultru n",
      "Ġkultru ntukele",
      "Ġwema kechile",
      "ĠkÃ¼pailo sanchu",
      "ĠayÃ¼ kÃ¼leke",
      "Ġtrap Ã¼m",
      "Ġungu m",
      "Ġlulul kiyaw",
      "ĠayeÃ±ma nge",
      "Ġchapam tukunu",
      "Ġrungo fal",
      "Ġtonfu nag",
      "ĠsakiÃ± ngefu",
      "Ġhuaso le",
      "Ġllam kÃ¼",
      "Ġllam kÃ¼m",
      "Ġtringar tuku",
      "Ġellka tripa",
      "Ġdesmay a",
      "Ġshampoo kechi",
      "Ġpamupiw ke",
      "Ġpamupiw kele",
      "ĠllÃ¼munÃ¼ r",
      "Ġcalzoncillo tule",
      "Ġlongkotukunie ka",
      "Ġchumka kunu",
      "Ġwitrampura y",
      "Ġyekafem pu",
      "ĠkÃ¼paw iÃ±o",
      "Ġwingkaw che",
      "Ġfamnag kÃ¼le",
      "Ġpurrun kiyaw",
      "Ġwellewel letu",
      "Ġleputu fe",
      "ĠkÃ¼pado ctor",
      "ĠkÃ¼pawi ri",
      "ĠkÃ¼patre pe",
      "ĠmÃ¼lemÃ¼ lengepa",
      "ĠchemchiÃ± ma",
      "Ġllikatu kunu",
      "Ġfamfamtu w",
      "ĠfalÃ¼le ntu",
      "Ġtallange tu",
      "ĠkÃ¼pailosanchu tu",
      "d en",
      "e yu",
      "e ymew",
      "f a",
      "Ġn ien",
      "Ġpu wa",
      "Ġkim chefe",
      "entu kutu",
      "Ġwe ngetu",
      "Ġye ngepa",
      "Ġtuku lka",
      "ĠkÃ¼pa pe",
      "Ġdungu pe",
      "Ġu fisa",
      "Ġentu che",
      "Ġentu fema",
      "Ġamu tupe",
      "Ġlu kutu",
      "la ymi",
      "nie y",
      "Ġchem ngetu",
      "Ġtripa kÃ¼l",
      "ĠÃ± a",
      "ĠÃ± ama",
      "Ġkellu pe",
      "Ġkintu pape",
      "Ġyew entukutu",
      "Ġnaw Ã±ma",
      "Ġchillkatu kÃ¼l",
      "Ġtraf mepe",
      "no le",
      "no li",
      "Ġingka y",
      "ĠmÃ¼tr Ã¼me",
      "ĠwÃ¼ z",
      "ĠmÃ¼trÃ¼m pe",
      "Ġopera ngetu",
      "tuy ngÃ¼n",
      "Ġwillu letu",
      "Ġfa ma",
      "Ġchaf o",
      "Ġtrapu ma",
      "afi el",
      "Ġtru r",
      "ĠmaÃ±u me",
      "Ġwilif Ã±ma",
      "Ġfemngechile we",
      "Ġalu Ã±may",
      "ĠkÃ¼pay enie",
      "Ġiyu fal",
      "Ġpiafu fi",
      "Ġrakidu ama",
      "Ġamatukefu fi",
      "Ġkonwe kÃ¼l",
      "Ġkintumi ll",
      "Ġtukulka wa",
      "b li",
      "e c",
      "e ro",
      "g la",
      "h u",
      "o lo",
      "s to",
      "Ġ E",
      "Ġ I",
      "Ġ R",
      "ng o",
      "Ġk or",
      "tu lay",
      "fu iÃ±",
      "Ġn tu",
      "li mi",
      "iÃ± mew",
      "Ġpi ae",
      "ay u",
      "Ġfem kÃ¼l",
      "Ġchum pape",
      "ko ta",
      "la fin",
      "nie nge",
      "nie ymÃ¼",
      "nie le",
      "nie li",
      "nie ymi",
      "nie ymÃ¼n",
      "nie pe",
      "Ġelu ae",
      "Ġelu afue",
      "ĠnÃ¼tramka wa",
      "Ġpuw ye",
      "Ġilo ngepa",
      "Ġyew entukunie",
      "Ġadkintu ae",
      "Ġkuyda pe",
      "Ġyewe kÃ¼l",
      "Ġb u",
      "Ġv e",
      "Ġpepi lka",
      "Ġg u",
      "qu e",
      "Ġyelme ae",
      "afi mÃ¼n",
      "ĠkonÃ¼mpa kee",
      "Ġarren danie",
      "ĠA n",
      "Ġte r",
      "Ġungu ma",
      "Ġingkatu che",
      "cu la",
      "Ġkimentu me",
      "Ġllowdungu ae",
      "ĠngillatuÃ±manie kee",
      "ĠkimngÃ¼ re",
      "Ġnuw kÃ¼lepe",
      "e tew",
      "l le",
      "n do",
      "t Ã¼",
      "Ġ K",
      "ke fiy",
      "Ġnge la",
      "ka wa",
      "kÃ¼ lli",
      "kÃ¼ llmi",
      "Ġkim pa",
      "Ġe m",
      "ngeke lay",
      "fe y",
      "fi lu",
      "ĠallkÃ¼ me",
      "Ġfeypi afue",
      "ngen o",
      "Ġayiw Ã¼",
      "Ġwelul kawa",
      "g i",
      "j a",
      "m p",
      "n te",
      "r ma",
      "s ti",
      "t an",
      "z u",
      "Ġ j",
      "Ġ su",
      "Ġ si",
      "Ġ za",
      "ym u",
      "Ġp la",
      "fu yu",
      "Ġa m",
      "le lu",
      "Ã± a",
      "Ġm en",
      "li dad",
      "mi mi",
      "ch ay",
      "ka liyiÃ±",
      "pa Ã±",
      "pa enew",
      "ma na",
      "kefu lu",
      "Ġr Ã¼",
      "Ġku se",
      "Ġwe ku",
      "am ente",
      "Ġme li",
      "on a",
      "Ġpa r",
      "ay ngÃ¼n",
      "an ti",
      "yaw i",
      "ngekefu iÃ±",
      "re s",
      "re gla",
      "fi yu",
      "fi mÃ¼n",
      "di o",
      "rume liyiÃ±",
      "lay ngÃ¼n",
      "ngey ngÃ¼n",
      "ael mi",
      "Ġwen u",
      "Ġno vi",
      "ne ro",
      "Ġngu la",
      "kel an",
      "Ġh er",
      "wi ngÃ¼n",
      "si dad",
      "Ġs e",
      "Ġs o",
      "ci na",
      "Ġar regla",
      "gen ti",
      "Ġtru ku",
      "kela iÃ±",
      "Ġtun te",
      "ĠF eli",
      "Ġkom paÃ±",
      "ĠtÃ¼ fa",
      "Ġnien o",
      "Ġza pa",
      "a en",
      "a ey",
      "a fin",
      "d an",
      "d elmi",
      "e liyiÃ±",
      "e iÃ±mew",
      "f Ã¼n",
      "i elmi",
      "l mÃ¼n",
      "Ġ D",
      "fu lu",
      "ke ntu",
      "ke afimÃ¼n",
      "tr en",
      "Ġm am",
      "Ġf ill",
      "Ġf illa",
      "Ġpe Ã±i",
      "el an",
      "kefu eyew",
      "aw e",
      "Ġch ew",
      "Ġka y",
      "Ġi yael",
      "Ġwi m",
      "Ġla f",
      "Ġu ni",
      "rke lay",
      "fi ngÃ¼n",
      "Ġfeypi afu",
      "Ġes ta",
      "Ġar genti",
      "ĠN o",
      "Ġmam Ã¼ll",
      "C olo",
      "a i",
      "a mi",
      "a fiiÃ±",
      "b o",
      "b u",
      "b ro",
      "b si",
      "c ra",
      "c ipa",
      "c ul",
      "c er",
      "c cion",
      "c amente",
      "d kÃ¼",
      "e b",
      "g le",
      "i da",
      "i po",
      "i bli",
      "i cula",
      "j i",
      "j o",
      "l tr",
      "l katu",
      "n ta",
      "o lli",
      "r pi",
      "r ro",
      "r so",
      "s tru",
      "s an",
      "t el",
      "t ela",
      "u m",
      "u lu",
      "u er",
      "v a",
      "v ange",
      "v er",
      "w liyiÃ±",
      "y a",
      "z o",
      "Ġ H",
      "Ġ V",
      "Ġ tor",
      "Ġ je",
      "ng all",
      "nge iÃ±",
      "nge tule",
      "tu ra",
      "Ġp Ã¼tra",
      "Ġp lan",
      "Ġa h",
      "Ġa li",
      "Ġa chawall",
      "Ġa gu",
      "Ġa ero",
      "le s",
      "le iÃ±",
      "le chi",
      "le yu",
      "le tule",
      "Ġke chu",
      "li l",
      "li mÃ¼n",
      "mi Ã±",
      "mi en",
      "mi on",
      "ch o",
      "ch en",
      "Ġf ie",
      "Ġf lo",
      "Ġpe pu",
      "Ġtu te",
      "ĠkÃ¼ tra",
      "pa iÃ±",
      "kefu enew",
      "Ġr ay",
      "Ġpi lkatu",
      "ie r",
      "Ġfe mi",
      "kÃ¼ ll",
      "Ġka l",
      "Ġka Ã±",
      "Ġka re",
      "Ġka ro",
      "Ġka rpi",
      "Ġku sh",
      "Ġkim che",
      "Ġi tro",
      "Ġel kaw",
      "Ġme di",
      "on i",
      "Ġpa l",
      "Ġpa s",
      "Ġpa ta",
      "ĠkÃ¼pa f",
      "chi w",
      "ra o",
      "ra do",
      "ra no",
      "pi we",
      "Ġe vange",
      "Ġche dkÃ¼",
      "an o",
      "an qui",
      "an tÃ¼",
      "Ġu ye",
      "ta l",
      "ta rea",
      "Ġya ll",
      "ri ta",
      "ri no",
      "meke yngÃ¼n",
      "te sta",
      "re ro",
      "Ġelu afu",
      "ngea lu",
      "fi nge",
      "Ġfi sh",
      "ĠÃ± u",
      "or te",
      "de ra",
      "Ġpuw y",
      "Ġmu n",
      "lay a",
      "we tulay",
      "ti ca",
      "Ġra ng",
      "Ġkuy fi",
      "Ġwen te",
      "pay ngÃ¼n",
      "Ġtraf ku",
      "Ġko ra",
      "Ġko Ã±i",
      "Ġes pe",
      "Ġes kota",
      "Ġo bli",
      "mun i",
      "es icula",
      "no rume",
      "kel afu",
      "Ġh ec",
      "er ta",
      "ĠfÃ¼l ang",
      "Ġv ie",
      "Ġv esicula",
      "Ġper mi",
      "Ġsa Ã±",
      "ni elu",
      "lon i",
      "Ġg o",
      "Ġg ra",
      "Ġg an",
      "Ġg ol",
      "Ġchi cha",
      "ĠC olo",
      "Ġmaw ida",
      "Ġkan kan",
      "Ġce bo",
      "Ġtru f",
      "ĠkonÃ¼mpa ke",
      "ĠM ar",
      "kela ymi",
      "Ġco loni",
      "Ġdes pu",
      "Ġre le",
      "Ġwelul kaw",
      "Ġte c",
      "Ġte le",
      "Ã±i lwe",
      "ag o",
      "Ġca to",
      "Ġca za",
      "Ġca mion",
      "vi a",
      "Ġde sa",
      "Ġcu ch",
      "ĠS an",
      "Ġym u",
      "Ġal ma",
      "Ġcon testa",
      "ĠMa ri",
      "ĠngillatuÃ±manie ke",
      "Ġpon wi",
      "Ġpon tro",
      "Ġniel ay",
      "Ġepe w",
      "ĠtÃ¼ fey",
      "ĠÃ±a Ã±a",
      "hu al",
      "ĠE li",
      "Ġem pe",
      "gi o",
      "Ġsu bsi",
      "ĠrÃ¼ pÃ¼",
      "Ġpar ti",
      "anti ago",
      "ĠD a",
      "ĠNo e",
      "ibli a",
      "tela f",
      "ver sidad",
      "Ġfie sta",
      "Ġkarpi nte",
      "Ġkush e",
      "Ġevange li",
      "ĠchedkÃ¼ y",
      "Ġobli ga",
      "Ġhec tarea",
      "ĠColo Colo",
      "c ro",
      "d ay",
      "f oro",
      "i mi",
      "i elu",
      "n tÃ¼",
      "r re",
      "u ela",
      "y ew",
      "Ã ĳ",
      "Ã Ń",
      "Ġ W",
      "Ġ Ãĳ",
      "nge el",
      "Ġl che",
      "tu lu",
      "tu fin",
      "fu el",
      "ke enew",
      "ke fiiÃ±",
      "ke eyÃ±mew",
      "Ġa fi",
      "Ġa tunge",
      "le lay",
      "Ġy entuku",
      "Ġfu ndo",
      "Ġf oro",
      "Ġpe n",
      "Ġpe li",
      "Ġpe la",
      "pa pen",
      "pa pelmi",
      "Ġpi no",
      "Ġch aw",
      "Ġfe ymew",
      "kÃ¼ n",
      "Ġpu n",
      "Ġku ram",
      "pu lu",
      "Ġi nge",
      "am en",
      "Ġtr ill",
      "Ġye nge",
      "Ġpa ng",
      "Ġpa ngku",
      "mu iÃ±",
      "Ã¼n o",
      "afu el",
      "Ġfey chi",
      "ngeke iÃ±",
      "ngeke laiÃ±",
      "kÃ¼le lu",
      "Ġfem lay",
      "rke yngÃ¼n",
      "meke lafuy",
      "la enew",
      "la eyew",
      "la fiel",
      "Ġelu nie",
      "fi limÃ¼n",
      "ĠnÃ¼tramka ke",
      "ĠiÃ± che",
      "Ġmi cro",
      "Ġpura ma",
      "lay an",
      "lay aymi",
      "Ġyew entuku",
      "Ġfen tren",
      "Ġin aw",
      "Ġin an",
      "Ġin ey",
      "Ġkulli Ã±",
      "ĠweÃ±e nge",
      "ĠpÃ¼ le",
      "Ġwen telaf",
      "Ġko ipo",
      "Ġcho fu",
      "afuy ngÃ¼n",
      "pel u",
      "kel afuiÃ±",
      "ĠmÃ¼tr Ã¼n",
      "wi mi",
      "Ġfo lil",
      "Ġestudi ay",
      "Ġestudi an",
      "Ġs antiago",
      "Ġt am",
      "ae tew",
      "ae ymew",
      "Ġayetu kela",
      "ĠanÃ¼m ka",
      "Ġdi os",
      "afi mi",
      "afi lu",
      "un do",
      "ngelay aymi",
      "ngelay ngÃ¼n",
      "Ġco mo",
      "Ġesc uela",
      "Ġpewma ngen",
      "Ġtukul kaw",
      "Ġarren dan",
      "pelay an",
      "kee tew",
      "ela fin",
      "ĠF o",
      "ngel mÃ¼n",
      "Ġwu la",
      "Ġrakidu a",
      "ĠP i",
      "Ġkimpa pel",
      "Ġuni versidad",
      "Ġesta do",
      "Ġargenti na",
      "Ġplan ta",
      "ĠkÃ¼tra l",
      "Ġkimche f",
      "Ġkora l",
      "A P",
      "D AP",
      "J o",
      "N DAP",
      "O ma",
      "Q u",
      "Z u",
      "a a",
      "a ku",
      "a ngu",
      "a ra",
      "a ko",
      "a co",
      "a qu",
      "a Ã±o",
      "b e",
      "b el",
      "b ra",
      "b la",
      "b ol",
      "b ier",
      "b rino",
      "b rero",
      "c le",
      "c en",
      "c el",
      "c to",
      "c re",
      "c tica",
      "d on",
      "d rea",
      "e g",
      "e m",
      "e ra",
      "e ru",
      "e ta",
      "e da",
      "e ti",
      "e ca",
      "e ctor",
      "e za",
      "e tro",
      "e pan",
      "e ba",
      "e rea",
      "e tren",
      "e um",
      "e hual",
      "f ill",
      "f on",
      "f ali",
      "f enew",
      "f anti",
      "g o",
      "g lo",
      "g an",
      "g ko",
      "g re",
      "g Ã¼ne",
      "g ion",
      "g rado",
      "i p",
      "i r",
      "i s",
      "i nge",
      "i tu",
      "i ku",
      "i pu",
      "i na",
      "i ci",
      "i sta",
      "i gu",
      "i sto",
      "i que",
      "i lle",
      "j or",
      "j un",
      "k y",
      "k lo",
      "k tor",
      "l che",
      "l ko",
      "l da",
      "l len",
      "l fiy",
      "m pa",
      "m pe",
      "m or",
      "n da",
      "n de",
      "n ca",
      "n co",
      "n illo",
      "o j",
      "o le",
      "o li",
      "o pa",
      "o ri",
      "o ko",
      "o rume",
      "o kiÃ±",
      "o Ã±o",
      "o Ã±i",
      "o cina",
      "p tu",
      "p Ã¼l",
      "p Ã¼tra",
      "p or",
      "p lan",
      "r r",
      "r ew",
      "r ki",
      "r Ã¼m",
      "r na",
      "r to",
      "r wa",
      "r de",
      "r do",
      "r ne",
      "r ca",
      "r elmi",
      "r mo",
      "r onc",
      "r zu",
      "r ona",
      "r sidad",
      "r cul",
      "s el",
      "s pi",
      "s co",
      "s mo",
      "s tilla",
      "t Ã¼m",
      "t onc",
      "t oni",
      "u en",
      "u ma",
      "u ko",
      "u to",
      "u la",
      "u ali",
      "u pay",
      "u Ã±o",
      "u rako",
      "u sti",
      "u cho",
      "u ille",
      "v en",
      "v ro",
      "v in",
      "v ion",
      "v illo",
      "v oro",
      "w Ã¼",
      "w la",
      "w fÃ¼",
      "w kefuyngÃ¼n",
      "x to",
      "y Ã±mew",
      "z i",
      "z ku",
      "z on",
      "© s",
      "Ã ©s",
      "Ġ Ã¼tra",
      "Ġ or",
      "Ġ oro",
      "Ġ que",
      "Ġ Jo",
      "Ġ Oma",
      "Ġ Qu",
      "Ġ Zu",
      "ng kÃ¼l",
      "ng les",
      "ng ako",
      "Ã¼ mi",
      "Ã¼ gko",
      "nge laiÃ±",
      "Ġl am",
      "Ġl Ã¼gko",
      "tu to",
      "tu fun",
      "tu kelay",
      "tu lan",
      "tu keyngÃ¼n",
      "Ġp ra",
      "Ġp ru",
      "Ġp Ã¼no",
      "fu r",
      "fu tu",
      "fu eyÃ±mew",
      "fu eymew",
      "ke m",
      "Ġa nge",
      "Ġa le",
      "Ġa che",
      "Ġa la",
      "Ġa sa",
      "Ġa ro",
      "Ġa su",
      "Ġa si",
      "Ġa un",
      "Ġa Ã±i",
      "Ġa bu",
      "Ġa rao",
      "Ġa aa",
      "Ġa uto",
      "Ġa vion",
      "le t",
      "le ki",
      "le no",
      "le fuiÃ±",
      "le gio",
      "le lafiel",
      "Ġnge du",
      "Ġnge we",
      "Ġnge welay",
      "Ġke pi",
      "Ġke no",
      "Ġn an",
      "Ġn iÃ±o",
      "Ġn orte",
      "Ã± Ã¼",
      "Ã± Ã¼m",
      "Ġy entu",
      "Ġy am",
      "Ġy iw",
      "Ġy Ã¼ll",
      "Ġy anqui",
      "tr on",
      "tr or",
      "tr ique",
      "Ġm iÃ±",
      "Ġm on",
      "li a",
      "li iÃ±",
      "li ta",
      "li ti",
      "li do",
      "li co",
      "li wen",
      "Ġw iÃ±",
      "Ġw aw",
      "Ġw an",
      "Ġle y",
      "Ġle tra",
      "Ġle on",
      "Ġle wfÃ¼",
      "mi sa",
      "mi ngÃ¼n",
      "mi no",
      "mi ngo",
      "mi lia",
      "ch illa",
      "ch elmi",
      "ch ona",
      "Ġf aw",
      "Ġf on",
      "Ġf Ã¼n",
      "Ġf ay",
      "Ġf ru",
      "Ġf or",
      "Ġpe l",
      "Ġpe tu",
      "Ġpe Ã±ma",
      "Ġpe ro",
      "Ġpe no",
      "Ġpe kelafu",
      "Ġtu lo",
      "Ġtu rpu",
      "Ġtu mor",
      "ka fiy",
      "ka cion",
      "ka nolu",
      "ka rwa",
      "en a",
      "en tra",
      "en an",
      "en ko",
      "en to",
      "en do",
      "Ġli g",
      "Ġli pa",
      "Ġli yu",
      "Ġli wen",
      "Ġli tro",
      "Ġli nte",
      "Ġli bro",
      "Ġli nco",
      "ll Ã¼",
      "ll ka",
      "ll ku",
      "ll cha",
      "ll pun",
      "ll fÃ¼n",
      "ll kÃ¼ll",
      "ll ano",
      "ĠkÃ¼ na",
      "ĠkÃ¼ la",
      "ĠkÃ¼ ni",
      "ĠkÃ¼ yen",
      "ĠkÃ¼ wÃ¼",
      "ĠkÃ¼ llkÃ¼ll",
      "pa lu",
      "pa fiy",
      "pa rao",
      "pa Ã±ilwe",
      "pa keeyÃ±mew",
      "pa ip",
      "el lido",
      "ma l",
      "ma da",
      "ma no",
      "ma tica",
      "ma foro",
      "ku n",
      "ku Ã±",
      "kefu el",
      "pe ye",
      "pe rme",
      "du ami",
      "Ġr eli",
      "Ġr ep",
      "Ġr inc",
      "Ġr olli",
      "Ġr iku",
      "Ġr opa",
      "Ġpi y",
      "Ġpi tu",
      "Ġpi am",
      "Ġpi tru",
      "Ġpi fuli",
      "Ġpi lafuy",
      "Ġpi chiÃ±",
      "Ġpi kota",
      "Ġpi nta",
      "Ġpi tal",
      "Ġpi eza",
      "Ġpi rona",
      "Ġpi zku",
      "Ġpi llka",
      "Ġki sh",
      "Ġki chiw",
      "Ġch ay",
      "Ġch anchu",
      "me ra",
      "me fiiÃ±",
      "me fiÃ±",
      "tra f",
      "ie mp",
      "Ġfe ria",
      "Ġfe rre",
      "Ġfe brero",
      "Ġfe wla",
      "kÃ¼ lla",
      "Ġka m",
      "Ġka ra",
      "Ġka cha",
      "Ġka lul",
      "Ġka mpu",
      "Ġka zu",
      "Ġka zi",
      "Ġka tuto",
      "Ġka misa",
      "Ġka chilla",
      "Ġpu el",
      "Ġpu tra",
      "Ġpu ru",
      "Ġpu no",
      "Ġpu eb",
      "Ġpu erta",
      "Ġpu kem",
      "Ġpu liwen",
      "Ġpu llku",
      "Ġku tu",
      "Ġku ku",
      "Ġku pu",
      "Ġku ra",
      "Ġku di",
      "Ġku len",
      "Ġku ad",
      "Ġku rso",
      "Ġku rew",
      "pu yu",
      "pu er",
      "pu mew",
      "pu yngÃ¼n",
      "pu ela",
      "Ġkim pe",
      "Ġkim la",
      "Ġkim lay",
      "Ġkim ken",
      "Ġkim kelafuy",
      "ngu era",
      "Ġi mÃ¼n",
      "Ġi gu",
      "Ġi den",
      "Ġi dio",
      "Ġi gle",
      "Ġi ngles",
      "Ġi chona",
      "entu kÃ¼ley",
      "ntu hu",
      "Ġwe chu",
      "Ġwe rken",
      "Ġma s",
      "Ġma y",
      "Ġma ma",
      "Ġma ki",
      "Ġma ri",
      "Ġma la",
      "Ġma ti",
      "Ġma len",
      "Ġma lon",
      "Ġma mita",
      "Ġma lle",
      "Ġma dera",
      "Ġma etro",
      "Ġma ipu",
      "Ġma ori",
      "Ġma rzu",
      "Ġma kuÃ±",
      "Ġma nguera",
      "ew a",
      "Ġnie y",
      "Ġnie ke",
      "Ġnie to",
      "Ġnie ken",
      "Ġnie fuy",
      "Ġwi lli",
      "Ġwi chu",
      "Ġwi ngku",
      "Ġwi no",
      "Ġwi ya",
      "Ġwi ngkÃ¼l",
      "nu ng",
      "nu el",
      "nu to",
      "Ġtr en",
      "Ġtr ewa",
      "Ġla le",
      "Ġla pi",
      "Ġla su",
      "Ġla pelay",
      "Ġla va",
      "ill on",
      "Ġme sa",
      "Ġme taw",
      "Ġme tro",
      "Ġme jor",
      "on ero",
      "on eum",
      "Ġye m",
      "Ġye so",
      "Ġpa pa",
      "Ġpa ri",
      "Ġpa la",
      "Ġpa re",
      "Ġpa ti",
      "Ġpa pay",
      "Ġpa Ã±u",
      "Ġpa sto",
      "Ġpa Ã±ilwe",
      "Ġpa is",
      "Ġpa karwa",
      "Ã¼n awe",
      "Ġtuku nge",
      "Ã±ma nie",
      "Ã±ma fin",
      "ĠkÃ¼pa lele",
      "ĠkÃ¼pa yen",
      "ĠkÃ¼pa ce",
      "chi antÃ¼",
      "ra da",
      "ra ngka",
      "ra bi",
      "ra mien",
      "ra zon",
      "ĠmÃ¼ ta",
      "ĠmÃ¼ te",
      "ĠmÃ¼ ten",
      "ĠmÃ¼ tay",
      "ĠmÃ¼ llo",
      "ĠmÃ¼ chay",
      "ĠmÃ¼ ltr",
      "ĠmÃ¼ day",
      "afu lu",
      "afu yu",
      "pi a",
      "pi lu",
      "pi ri",
      "pi ente",
      "Ġe le",
      "Ġe ymi",
      "Ġe ymÃ¼n",
      "Ġe pu",
      "Ġe ngu",
      "Ġe mu",
      "Ġe ra",
      "Ġe ngÃ¼n",
      "Ġe je",
      "Ġe Ã±u",
      "Ġe dad",
      "Ġe kota",
      "Ġe ymu",
      "Ġe go",
      "ay rki",
      "Ġru mel",
      "Ġru eda",
      "Ġche mu",
      "Ġche vro",
      "illa n",
      "illa len",
      "Ġd el",
      "Ġd ro",
      "lu wi",
      "lu fke",
      "lu vi",
      "lo r",
      "lo ri",
      "lo la",
      "lo ria",
      "lo gi",
      "Ġdungu ken",
      "Ġdungu kelay",
      "Ġdungu welay",
      "Ġtra fi",
      "Ġtra pel",
      "Ġtra ktor",
      "Ġtra mpa",
      "Ġtra uma",
      "Ġngilla Ã±",
      "Ġngilla paÃ±ilwe",
      "an do",
      "an co",
      "an za",
      "an cer",
      "an aco",
      "Ġu na",
      "Ġu no",
      "Ġu yew",
      "Ġentu fe",
      "che t",
      "Ġkon o",
      "Ġkon pun",
      "ru pay",
      "ru pape",
      "yaw iÃ±",
      "ta ro",
      "ta lidad",
      "ngekefu el",
      "Ġfem noli",
      "Ġchu mi",
      "Ġchu chi",
      "Ġchu chu",
      "Ġchu wi",
      "Ġya ngka",
      "Ġya ngall",
      "Ġya gan",
      "Ġdew Ã¼",
      "rke no",
      "na lwe",
      "na rdo",
      "Ġlu z",
      "Ġlu na",
      "Ġchum kaw",
      "Ġchum ngelu",
      "Ġchum ten",
      "Ġchum Ã¼ll",
      "Ġdewma nge",
      "Ġall fi",
      "ri o",
      "ri to",
      "ri al",
      "ri dad",
      "ri ba",
      "ri ngo",
      "ko m",
      "ko piwe",
      "fe mi",
      "fe rsidad",
      "meke iÃ±",
      "meke lay",
      "to co",
      "la fiy",
      "la cion",
      "la se",
      "la rita",
      "ali sta",
      "ali ptu",
      "ali smo",
      "te ria",
      "te llano",
      "re to",
      "re sa",
      "re ctor",
      "re za",
      "re mo",
      "re sta",
      "re cia",
      "re bro",
      "nie ro",
      "nie fin",
      "Ġchem kÃ¼n",
      "Ġchem kun",
      "Ġad tuku",
      "Ġelu wÃ¼n",
      "Ġelu ngeno",
      "ĠngÃ¼ tror",
      "ĠngÃ¼ traf",
      "fi tu",
      "fi liÃ±",
      "fi nero",
      "fi anza",
      "Ġfi lu",
      "Ġfi rma",
      "Ġfi nde",
      "kunu enew",
      "wa ka",
      "Ġtripa key",
      "Ġtripa ntÃ¼",
      "ĠÃ± ar",
      "ĠÃ± awe",
      "ĠÃ± ayrki",
      "Ġngillatu n",
      "ĠÃ¼l cha",
      "Ġwa ria",
      "Ġwa lle",
      "Ġwa rangka",
      "ĠnÃ¼tramka le",
      "Ġkutran ka",
      "Ġkutran kÃ¼le",
      "or ba",
      "Ġaku cha",
      "ĠallkÃ¼ tule",
      "ĠallkÃ¼ tuli",
      "ĠiÃ± chiÃ±",
      "ĠiÃ± chiw",
      "Ġnentu lay",
      "de r",
      "de s",
      "de ro",
      "Ġmi sa",
      "Ġmi si",
      "Ġmi ngako",
      "Ġmi lita",
      "Ġmi entra",
      "Ġmi nuto",
      "Ġyaw futu",
      "Ġc ar",
      "Ġc iel",
      "Ġc orte",
      "Ġc ancer",
      "Ġc lase",
      "Ġc aliptu",
      "Ġc orba",
      "Ġna da",
      "Ġna ci",
      "Ġna por",
      "Ġna nung",
      "Ġna talidad",
      "al an",
      "al di",
      "al va",
      "ĠngÃ¼n en",
      "ĠngÃ¼n entukÃ¼ley",
      "Ġmo tor",
      "Ġmo ltr",
      "Ġmo lda",
      "Ġmo llfÃ¼n",
      "ale a",
      "Ġlla lla",
      "di n",
      "di ne",
      "Ġwingka wi",
      "Ġwingka kechile",
      "sa mien",
      "sa bel",
      "sa rio",
      "Ġilo waka",
      "Ġkintu pe",
      "Ġmu ni",
      "Ġmu tay",
      "Ġmu ndo",
      "Ġmu eb",
      "Ġmu llpun",
      "Ġmiyaw i",
      "Ġap ellido",
      "Ġlo f",
      "Ġlo s",
      "Ġlo ko",
      "Ġlo co",
      "Ġmapuche ngen",
      "Ġmapuche ngeli",
      "lay afun",
      "lay afuiÃ±",
      "Ġpo so",
      "Ġpo sta",
      "Ġpo zo",
      "Ġpo Ã±Ã¼",
      "Ġpo liti",
      "Ġpo lola",
      "ro z",
      "Ġrupa yan",
      "we sha",
      "ti to",
      "ti mo",
      "ti dad",
      "ti cia",
      "ti camente",
      "Ġadkintu pe",
      "Ġfam ngechi",
      "Ġin ye",
      "Ġin ayaw",
      "Ġin chiÃ±",
      "Ġin stru",
      "Ġin fanti",
      "Ġin ven",
      "Ġin fitu",
      "Ġra g",
      "Ġra kiÃ±",
      "Ġra dio",
      "Ġra mada",
      "Ġadum Ã¼l",
      "Ġadum nie",
      "Ġtrana ley",
      "Ġan ka",
      "Ġan ay",
      "do ra",
      "do so",
      "do res",
      "Ġweda chew",
      "Ġnaw putu",
      "ĠpÃ¼ llÃ¼",
      "Ġaf ken",
      "as ta",
      "rÃ¼ ng",
      "Ġaw tu",
      "Ġaw kan",
      "Ġaw kay",
      "Ġaw ela",
      "ĠtrawÃ¼ lu",
      "Ġanu ngechi",
      "Ġtraf me",
      "Ġtraf kintu",
      "ĠÃ¼ trÃ¼",
      "ĠÃ¼ Ã±Ã¼m",
      "ĠÃ¼ llcha",
      "ĠÃ¼ kÃ¼lla",
      "kale n",
      "Ġwitra nalwe",
      "Ġno ta",
      "Ġno villo",
      "Ġno ticia",
      "ngetu kefuy",
      "Ġko chi",
      "Ġko fi",
      "Ġko fre",
      "Ġko llo",
      "Ġko se",
      "Ġko piwe",
      "Ġko muni",
      "Ġko leki",
      "Ġina l",
      "ul hual",
      "Ġyu fu",
      "Ġngolli lche",
      "Ġen tre",
      "Ġen tonc",
      "Ġfal de",
      "Ġpur rÃ¼m",
      "Ġes e",
      "Ġes te",
      "Ġes puela",
      "Ġes piri",
      "ye fiiÃ±",
      "ye cto",
      "Ġcho kÃ¼m",
      "Ġo fisa",
      "Ġo rado",
      "su n",
      "su s",
      "Ġpro gre",
      "Ġpro yecto",
      "ne s",
      "ne mal",
      "Ġcha ng",
      "Ġcha ku",
      "Ġcha la",
      "Ġcha di",
      "Ġcha cha",
      "Ġcha lla",
      "Ġcha llo",
      "Ġcha chay",
      "Ġcha cra",
      "Ġcha ngall",
      "ĠillkÃ¼ tu",
      "Ġlle na",
      "Ġlle may",
      "men to",
      "tuku le",
      "pel afuy",
      "Ġdu eÃ±",
      "Ġdu miÃ±",
      "Ġdu doso",
      "no logi",
      "no chet",
      "kel afuymi",
      "ley Ã±mew",
      "ca za",
      "Ġh ay",
      "Ġh ier",
      "Ġh isto",
      "Ġh asta",
      "ĠkÃ¼l fÃ¼",
      "Ġta rea",
      "Ġta rro",
      "Ġta bla",
      "Ġta pÃ¼l",
      "Ġta rde",
      "Ġrel oj",
      "Ġpiw keli",
      "Ġare ngen",
      "len ew",
      "er do",
      "er po",
      "er ce",
      "er gio",
      "er piente",
      "er nardo",
      "Ġb ai",
      "Ġb iblia",
      "Ġb aÃ±o",
      "Ġb eca",
      "Ġb ici",
      "Ġb ocina",
      "Ġb ronc",
      "Ġb anco",
      "wi yu",
      "Ġdo y",
      "Ġdo am",
      "Ġdo mingo",
      "Ġne rÃ¼ng",
      "eÃ± a",
      "Ġfo ye",
      "Ġfo tilla",
      "Ġfo ina",
      "Ġfo tÃ¼m",
      "Ġfo toco",
      "Ġfo resta",
      "ĠkÃ¼melkale pan",
      "si a",
      "si ku",
      "Ġv er",
      "Ġv aso",
      "Ġv aqu",
      "Ġv ena",
      "Ġac ci",
      "Ġac ero",
      "Ġac uer",
      "Ġpepi l",
      "Ġpepi kÃ¼daw",
      "co s",
      "ĠmÃ¼trÃ¼m we",
      "kiyaw fimÃ¼n",
      "Ġfan dera",
      "Ġper fo",
      "Ġper don",
      "Ġpedi r",
      "Ġcas tilla",
      "Ġcas uali",
      "Ġcas tellano",
      "Ġopera cion",
      "ngÃ¼ mi",
      "ngÃ¼ ll",
      "za o",
      "fuy ngÃ¼n",
      "Ġmall okiÃ±",
      "kÃ¼l mÃ¼n",
      "ga lo",
      "Ġrung i",
      "Ġputu n",
      "Ġputu ken",
      "Ġayu wÃ¼n",
      "Ġs ep",
      "Ġs ol",
      "Ġs ec",
      "Ġs iemp",
      "Ġs erpiente",
      "Ġt ampo",
      "Ġdoctor ngen",
      "Ġsa la",
      "Ġsa co",
      "Ġsa bi",
      "Ġsa ba",
      "Ġsa grado",
      "Ġlif ru",
      "Ġmate ria",
      "Ġmate matica",
      "ni ce",
      "ni camente",
      "ci o",
      "ci ku",
      "ci an",
      "ci no",
      "ci alista",
      "Ġkaw e",
      "Ġkaw itu",
      "Ġpor que",
      "Ġinte rcul",
      "ĠmÃ¼n a",
      "Ġg ente",
      "Ġg ringo",
      "Ġlel fÃ¼n",
      "Ġvi lu",
      "Ġvi tro",
      "mo cra",
      "Ġchi leno",
      "Ġkutrankaw kÃ¼le",
      "ĠC eli",
      "ĠC olli",
      "ĠC oÃ±o",
      "ĠC lori",
      "ĠC larita",
      "Ġpri ma",
      "Ġnew e",
      "Ġtro kiÃ±",
      "Ġpipi y",
      "Ġar aw",
      "Ġar ca",
      "Ġar bol",
      "Ġar riba",
      "Ġar roz",
      "Ġketra y",
      "Ġfante pumew",
      "Ġney en",
      "Ġhu erta",
      "Ġfa Ã±u",
      "Ġfa rma",
      "Ġfa milia",
      "Ġfa chiantÃ¼",
      "paf iÃ±",
      "ĠngÃ¼l amtu",
      "ĠngÃ¼l ale",
      "ĠngÃ¼l amu",
      "Ġayetu kelay",
      "qu in",
      "eli ta",
      "in voro",
      "in trique",
      "ile f",
      "ile o",
      "wel aymi",
      "wel aiÃ±",
      "Ġpriva do",
      "Ġtray ay",
      "Ġtray enko",
      "ĠCh i",
      "ĠCh ew",
      "ĠCh ol",
      "ĠCh um",
      "ĠCh illan",
      "ar ra",
      "ar din",
      "Ġpre so",
      "Ġpre parao",
      "Ġpob lacion",
      "ĠwenÃ¼y ka",
      "Ġkan cha",
      "Ġdi sco",
      "Ġdi luvi",
      "Ġdi rector",
      "Ġman dan",
      "Ġman san",
      "Ġman sun",
      "Ġce rebro",
      "Ġho la",
      "Ġho ngo",
      "Ġho ja",
      "Ġho spi",
      "ang ileo",
      "lan ca",
      "lan quin",
      "Ġpresi on",
      "afi ymi",
      "afi yu",
      "ĠweÃ± che",
      "bi en",
      "ĠT oÃ±i",
      "Ġtru re",
      "Ġtru ol",
      "Ġtru fur",
      "Ġcer co",
      "Ġkol kopiwe",
      "Ġchom ba",
      "Ġfol do",
      "Ġfol klo",
      "ĠM etren",
      "ĠM igu",
      "ĠM illalen",
      "ĠM erce",
      "kela fin",
      "kela fiy",
      "kela afimÃ¼n",
      "Ġpilu n",
      "Ġco sa",
      "Ġco cina",
      "Ġco ji",
      "Ġco muni",
      "Ġco stilla",
      "Ġco legio",
      "Ġco mino",
      "Ġco razon",
      "Ġco lor",
      "Ġda tu",
      "Ġda llu",
      "Ġmis mo",
      "ĠceÃ± ir",
      "ĠangkÃ¼m wesha",
      "Ġcemen to",
      "ĠTe resa",
      "Ġre ke",
      "Ġre Ã±ma",
      "Ġre cu",
      "Ġre gla",
      "Ġre ja",
      "Ġre gle",
      "Ġre cre",
      "Ġre galo",
      "Ġex amen",
      "Ġcal le",
      "Ġllama da",
      "ĠweÃ±eÃ±ma ngepe",
      "Ġene ro",
      "Ġtranqui lo",
      "ĠngÃ¼lam ka",
      "Ġescri tura",
      "pelay ay",
      "pelay ngÃ¼n",
      "welay an",
      "ĠA na",
      "ĠA gu",
      "ĠA bu",
      "ĠA erea",
      "ĠA llen",
      "Ġte mp",
      "Ġte sti",
      "Ã±i uko",
      "Ġtun ten",
      "Ġopi n",
      "ag u",
      "ĠF uer",
      "ĠF eÃ±a",
      "Ġca rabi",
      "Ġca samien",
      "cu ra",
      "cu lo",
      "Ġkime lele",
      "ba cion",
      "se mana",
      "vi d",
      "Ġde cia",
      "Ġde ngÃ¼ll",
      "Ġde cian",
      "Ġde mocra",
      "Ġtrapi al",
      "Ġchumka norume",
      "Ġchumka orume",
      "Ġcu ra",
      "Ġcu rso",
      "Ġcu ento",
      "Ġcu ando",
      "Ġcu erpo",
      "Ġkoy am",
      "ĠS eg",
      "ĠS tron",
      "ĠS ergio",
      "ĠS invoro",
      "Ġwu le",
      "tilla nca",
      "Ġal Ã¼n",
      "Ġal fisa",
      "Ġal fa",
      "Ġcon den",
      "Ġcon stru",
      "Ġcon jun",
      "Ġcon fianza",
      "cia do",
      "ĠMa ria",
      "ĠMa cul",
      "ĠMa nuel",
      "ĠMa Ã±iuko",
      "Ġeduca cion",
      "Ġprivatiza o",
      "Ġkoyla tuy",
      "ce ro",
      "ĠN ec",
      "ĠN ehual",
      "ĠN gÃ¼ne",
      "ĠP elan",
      "ĠP ai",
      "ĠP angu",
      "ĠP eru",
      "Ġti ye",
      "Ġti nta",
      "os endo",
      "ĠB iblia",
      "ĠB eti",
      "ĠB oli",
      "ĠB ernardo",
      "ĠB lanca",
      "ĠG uille",
      "ĠG loria",
      "ĠG recia",
      "ĠG alva",
      "ĠG arra",
      "ĠL ulu",
      "ĠL ucho",
      "ĠL lufke",
      "ĠL lanquin",
      "Ġpon siku",
      "Ġepe ko",
      "Ġnuw kÃ¼le",
      "ĠÃ±a mi",
      "hu ciado",
      "ĠE rne",
      "ĠI NDAP",
      "ĠI mpe",
      "ĠI sabel",
      "ĠR anqui",
      "ĠR upay",
      "ĠR angileo",
      "ĠR osendo",
      "Ġkor Ã¼",
      "Ġkor ko",
      "Ġkor ona",
      "Ġkor dero",
      "Ġbu s",
      "Ġbu ra",
      "Ġbu rito",
      "Ġbu dine",
      "Ġve z",
      "Ġve cina",
      "Ġve rano",
      "Ġve cino",
      "Ġgu sto",
      "Ġgu ara",
      "Ġgu anaco",
      "Ġgu agu",
      "ĠAn drea",
      "ĠAn sel",
      "ĠAn toni",
      "ĠAn tillanca",
      "Ġter no",
      "Ġter cer",
      "Ġter remo",
      "Ġter cero",
      "cula r",
      "ĠK urako",
      "ĠK Ã¼nawe",
      "fey Ã±mew",
      "mp lo",
      "sti na",
      "Ġj usti",
      "Ġj alea",
      "Ġj ardin",
      "Ġsu perme",
      "Ġsi no",
      "Ġsi glo",
      "Ġpla ta",
      "Ġpla to",
      "Ġpla za",
      "Ġam ta",
      "Ġam fe",
      "Ã±a Ã±",
      "Ġmen os",
      "Ġmen inge",
      "Ġmen oko",
      "ĠrÃ¼ ngo",
      "Ġweku n",
      "Ġweku fu",
      "Ġpar te",
      "Ġnovi a",
      "Ġnovi o",
      "Ġnovi os",
      "Ġher mana",
      "Ġher mano",
      "Ġher ramien",
      "Ġse mana",
      "Ġse xto",
      "Ġse maforo",
      "Ġso ya",
      "Ġso brino",
      "Ġso paip",
      "Ġtruku r",
      "ĠFeli x",
      "ĠFeli pe",
      "ĠFeli sario",
      "Ġzapa to",
      "Ġzapa llo",
      "Ġzapa tito",
      "Ġkay Ã±e",
      "Ġkay kay",
      "Ġwim wi",
      "Ġlaf ken",
      "Ġuni fersidad",
      "Ġesta cion",
      "Ġargenti no",
      "cipa lidad",
      "ji ta",
      "rro llo",
      "tel ay",
      "ĠH ector",
      "ĠH uen",
      "ĠV enan",
      "ĠV aldi",
      "Ġtor nillo",
      "Ġtor caza",
      "Ġje fe",
      "Ġje sus",
      "tura lidad",
      "Ġah i",
      "Ġah ÃŃ",
      "Ġali men",
      "Ġali wen",
      "Ġagu a",
      "Ġagu an",
      "Ġaero plan",
      "Ġaero puer",
      "Ġflo r",
      "Ġflo rero",
      "Ġray en",
      "Ġkal Ã¼l",
      "Ġkare ta",
      "Ġkare tilla",
      "Ġkaro te",
      "Ġkaro ti",
      "Ġitro fill",
      "Ġitro kom",
      "Ġmedi a",
      "Ġmedi co",
      "oni a",
      "Ġpal mera",
      "Ġpas tor",
      "Ġpas tel",
      "Ġpata ka",
      "ĠÃ±u ke",
      "ĠÃ±u kentu",
      "Ġrang i",
      "Ġrang iÃ±",
      "Ġtrafku pÃ¼tra",
      "Ġespe jo",
      "Ġespe cialista",
      "Ġvie jo",
      "Ġvie jita",
      "Ġpermi so",
      "ĠsaÃ± we",
      "ĠsaÃ± chu",
      "Ġgo ma",
      "Ġgo bier",
      "Ġgra nero",
      "Ġgra bacion",
      "Ġgan su",
      "Ġgan zu",
      "Ġgol pe",
      "Ġchicha rr",
      "Ġcebo lla",
      "ĠMar cel",
      "ĠMar cos",
      "Ġcoloni alismo",
      "Ġcoloni zao",
      "Ġdespu es",
      "Ġdespu Ã©s",
      "Ġtec nologi",
      "Ġtec nicamente",
      "Ġtele fon",
      "Ġcato lica",
      "Ġcato lico",
      "Ġcaza dores",
      "Ġcamion eta",
      "Ġdesa huciado",
      "Ġdesa rrollo",
      "Ġcuch illo",
      "Ġcuch illon",
      "ĠSan ta",
      "Ġalma cen",
      "ĠMari n",
      "ĠMari ano",
      "Ġponwi tu",
      "ĠÃ±aÃ±a Ã±aÃ±",
      "ĠEli sa",
      "ĠEli as",
      "Ġempe z",
      "Ġempe za",
      "Ġsubsi di",
      "Ġsubsi dio",
      "Ġparti cipa",
      "Ġparti cular",
      "ĠDa vin",
      "ĠDa vid",
      "Ġkarpinte ro",
      "Ġkarpinte ria",
      "Ġevangeli o",
      "Ġevangeli ko",
      "Ġobliga do",
      "Ġobliga cion",
      "ĠW en",
      "ĠÃĳ uÃ±o",
      "Ġafi rma",
      "Ġpen ka",
      "Ġpeli cula",
      "Ġpela a",
      "Ġinge niero",
      "Ġtrill tran",
      "Ġpang kÃ¼ll",
      "Ġestudian te",
      "Ġtam bien",
      "ĠFo tr",
      "ĠPi nochet",
      "aku cha",
      "be to",
      "cle ta",
      "rca do",
      "ula f",
      "ĠÃ¼tra r",
      "Ġor kon",
      "ĠJo se",
      "ĠOma r",
      "ĠQu intrique",
      "ĠZu rita",
      "Ġlam ngen",
      "ĠlÃ¼gko yan",
      "Ġpra ctica",
      "Ġpru eba",
      "Ġale ko",
      "Ġala san",
      "Ġasa do",
      "Ġaro l",
      "Ġasu cura",
      "Ġaun que",
      "ĠaÃ±i l",
      "Ġabu elita",
      "Ġauto ridad",
      "Ġkepi to",
      "Ġyiw iÃ±",
      "ĠyÃ¼ll Ã¼y",
      "ĠmiÃ± che",
      "Ġmon ja",
      "Ġwaw lu",
      "Ġfon ciku",
      "Ġfay tun",
      "Ġfru tilla",
      "Ġfor ma",
      "Ġtulo ng",
      "Ġlipa ng",
      "Ġlinte rna",
      "Ġlinco yan",
      "peye m",
      "Ġreli gion",
      "Ġrep ente",
      "Ġrinc on",
      "Ġrolli zo",
      "Ġpitru n",
      "Ġkish u",
      "Ġchay i",
      "Ġferre teria",
      "Ġkara finero",
      "Ġkazu ela",
      "Ġpuru m",
      "Ġpueb lo",
      "Ġkupu lwe",
      "Ġkuad ra",
      "Ġkurew en",
      "Ġigu al",
      "Ġiden tidad",
      "Ġidio ma",
      "Ġigle sia",
      "ntuhu e",
      "Ġmaki na",
      "Ġmala l",
      "Ġmati ta",
      "Ġwichu lko",
      "Ġwingku l",
      "Ġwino l",
      "Ġlapi z",
      "Ġlava dora",
      "Ġmetaw e",
      "oneum onia",
      "Ġpari ente",
      "Ġpala bra",
      "Ġpare ce",
      "Ġpati o",
      "Ġpasto res",
      "ĠkÃ¼pace reza",
      "ĠmÃ¼llo kiÃ±",
      "ĠmÃ¼ltr Ã¼n",
      "Ġeje mplo",
      "Ġego ista",
      "Ġchevro let",
      "Ġdro ga",
      "Ġtrafi a",
      "Ġtrapel akucha",
      "Ġyangka ll",
      "Ġchumkaw norume",
      "Ġfinde semana",
      "ĠÃ±ar ky",
      "Ġmisi onero",
      "Ġmilita r",
      "Ġmientra s",
      "Ġcar nice",
      "Ġciel o",
      "Ġcorba ta",
      "Ġmoltr on",
      "Ġmolda je",
      "Ġmuni cipalidad",
      "Ġmutay ke",
      "Ġmueb le",
      "Ġposo ko",
      "Ġpoliti co",
      "Ġinye ccion",
      "Ġinstru mento",
      "Ġinfanti l",
      "Ġkollo ng",
      "Ġkose cha",
      "Ġkomuni kacion",
      "Ġkoleki o",
      "Ġentonc es",
      "Ġespiri tu",
      "Ġorado res",
      "Ġprogre so",
      "Ġchallo f",
      "ĠdueÃ± o",
      "Ġhier ba",
      "Ġhisto ria",
      "Ġbai la",
      "Ġbici cleta",
      "Ġbronc oneumonia",
      "Ġfotoco pia",
      "Ġforesta les",
      "Ġvaqu illa",
      "Ġacci dente",
      "Ġacuer do",
      "Ġperfo rada",
      "Ġcasuali dad",
      "Ġsep timo",
      "Ġsol amente",
      "Ġsec reto",
      "Ġsiemp re",
      "Ġtampo co",
      "Ġsabi o",
      "Ġsaba do",
      "Ġintercul turalidad",
      "Ġvitro la",
      "ĠCeli nda",
      "ĠColli o",
      "ĠCoÃ±o epan",
      "ĠClori ndo",
      "Ġfarma cia",
      "Ġdiluvi o",
      "Ġmansan a",
      "Ġhospi tal",
      "ĠToÃ±i to",
      "Ġfolklo re",
      "ĠMetren co",
      "ĠMigu el",
      "ĠMerce des",
      "Ġcoji nes",
      "Ġcomuni dad",
      "ĠangkÃ¼mwesha kelu",
      "Ġrecu erdo",
      "Ġrecre o",
      "ĠAgu stina",
      "ĠAbu rto",
      "ĠAllen de",
      "Ġtemp rano",
      "Ġtesti culo",
      "ĠFuer za",
      "Ġcarabi nero",
      "Ġcasamien to",
      "Ġdemocra ticamente",
      "ĠSeg undo",
      "ĠSinvoro so",
      "Ġalfa beto",
      "Ġconden a",
      "Ġconstru ccion",
      "Ġconjun to",
      "ĠNec ulhual",
      "ĠNehual we",
      "ĠNgÃ¼ne chen",
      "ĠPelan taro",
      "ĠPai nemal",
      "ĠPangu ilef",
      "ĠBoli via",
      "ĠGuille rmo",
      "ĠGalva rino",
      "ĠLlufke ntuhue",
      "ĠErne sto",
      "ĠImpe rial",
      "ĠRanqui l",
      "Ġbudine ra",
      "Ġguara ni",
      "ĠAnsel mo",
      "ĠAntoni o",
      "Ġterremo to",
      "Ġjusti cia",
      "Ġsuperme rcado",
      "Ġherramien ta",
      "Ġsopaip illa",
      "ĠHuen ulaf",
      "ĠVenan cio",
      "ĠValdi via",
      "Ġaeroplan o",
      "Ġaeropuer to",
      "Ġgobier no",
      "Ġchicharr on",
      "ĠMarcel o",
      "Ġtecnologi a",
      "Ġtelefon o",
      "ĠDavin cho",
      "ĠÃĳuÃ±o a",
      "ĠQuintrique o",
      "Ġcarnice ria"
    ]
  }
}